#include <cstdint>
#include "control_net.hpp"

alignas(16) const unsigned char control_net_tflite[] = {
	0x1c, 0x00, 0x00, 0x00, 0x54, 0x46, 0x4c, 0x33, 0x14, 0x00, 0x20, 0x00,
	0x1c, 0x00, 0x18, 0x00, 0x14, 0x00, 0x10, 0x00, 0x0c, 0x00, 0x00, 0x00,
	0x08, 0x00, 0x04, 0x00, 0x14, 0x00, 0x00, 0x00, 0x1c, 0x00, 0x00, 0x00,
	0x90, 0x00, 0x00, 0x00, 0xe8, 0x00, 0x00, 0x00, 0xb8, 0x34, 0x00, 0x00,
	0xc8, 0x34, 0x00, 0x00, 0x8c, 0x3a, 0x00, 0x00, 0x03, 0x00, 0x00, 0x00,
	0x01, 0x00, 0x00, 0x00, 0x10, 0x00, 0x00, 0x00, 0x00, 0x00, 0x0a, 0x00,
	0x10, 0x00, 0x0c, 0x00, 0x08, 0x00, 0x04, 0x00, 0x0a, 0x00, 0x00, 0x00,
	0x0c, 0x00, 0x00, 0x00, 0x1c, 0x00, 0x00, 0x00, 0x3c, 0x00, 0x00, 0x00,
	0x0f, 0x00, 0x00, 0x00, 0x73, 0x65, 0x72, 0x76, 0x69, 0x6e, 0x67, 0x5f,
	0x64, 0x65, 0x66, 0x61, 0x75, 0x6c, 0x74, 0x00, 0x01, 0x00, 0x00, 0x00,
	0x04, 0x00, 0x00, 0x00, 0x98, 0xff, 0xff, 0xff, 0x0b, 0x00, 0x00, 0x00,
	0x04, 0x00, 0x00, 0x00, 0x08, 0x00, 0x00, 0x00, 0x6f, 0x75, 0x74, 0x70,
	0x75, 0x74, 0x5f, 0x30, 0x00, 0x00, 0x00, 0x00, 0x01, 0x00, 0x00, 0x00,
	0x04, 0x00, 0x00, 0x00, 0xe6, 0xcb, 0xff, 0xff, 0x04, 0x00, 0x00, 0x00,
	0x06, 0x00, 0x00, 0x00, 0x61, 0x72, 0x67, 0x73, 0x5f, 0x30, 0x00, 0x00,
	0x02, 0x00, 0x00, 0x00, 0x34, 0x00, 0x00, 0x00, 0x04, 0x00, 0x00, 0x00,
	0xdc, 0xff, 0xff, 0xff, 0x0e, 0x00, 0x00, 0x00, 0x04, 0x00, 0x00, 0x00,
	0x13, 0x00, 0x00, 0x00, 0x43, 0x4f, 0x4e, 0x56, 0x45, 0x52, 0x53, 0x49,
	0x4f, 0x4e, 0x5f, 0x4d, 0x45, 0x54, 0x41, 0x44, 0x41, 0x54, 0x41, 0x00,
	0x08, 0x00, 0x0c, 0x00, 0x08, 0x00, 0x04, 0x00, 0x08, 0x00, 0x00, 0x00,
	0x0d, 0x00, 0x00, 0x00, 0x04, 0x00, 0x00, 0x00, 0x13, 0x00, 0x00, 0x00,
	0x6d, 0x69, 0x6e, 0x5f, 0x72, 0x75, 0x6e, 0x74, 0x69, 0x6d, 0x65, 0x5f,
	0x76, 0x65, 0x72, 0x73, 0x69, 0x6f, 0x6e, 0x00, 0x0f, 0x00, 0x00, 0x00,
	0xcc, 0x33, 0x00, 0x00, 0xc4, 0x33, 0x00, 0x00, 0xa4, 0x33, 0x00, 0x00,
	0x8c, 0x31, 0x00, 0x00, 0x7c, 0x11, 0x00, 0x00, 0xec, 0x10, 0x00, 0x00,
	0xdc, 0x0f, 0x00, 0x00, 0xcc, 0x00, 0x00, 0x00, 0xc4, 0x00, 0x00, 0x00,
	0xbc, 0x00, 0x00, 0x00, 0xb4, 0x00, 0x00, 0x00, 0xac, 0x00, 0x00, 0x00,
	0xa4, 0x00, 0x00, 0x00, 0x84, 0x00, 0x00, 0x00, 0x04, 0x00, 0x00, 0x00,
	0x96, 0xcc, 0xff, 0xff, 0x04, 0x00, 0x00, 0x00, 0x70, 0x00, 0x00, 0x00,
	0x10, 0x00, 0x00, 0x00, 0x00, 0x00, 0x00, 0x00, 0x08, 0x00, 0x0e, 0x00,
	0x08, 0x00, 0x04, 0x00, 0x08, 0x00, 0x00, 0x00, 0x10, 0x00, 0x00, 0x00,
	0x24, 0x00, 0x00, 0x00, 0x00, 0x00, 0x06, 0x00, 0x08, 0x00, 0x04, 0x00,
	0x06, 0x00, 0x00, 0x00, 0x04, 0x00, 0x00, 0x00, 0x00, 0x00, 0x00, 0x00,
	0x0c, 0x00, 0x1c, 0x00, 0x18, 0x00, 0x14, 0x00, 0x10, 0x00, 0x04, 0x00,
	0x0c, 0x00, 0x00, 0x00, 0x61, 0x5b, 0xd8, 0xc3, 0x3e, 0x95, 0xc9, 0xac,
	0x00, 0x00, 0x00, 0x00, 0x01, 0x00, 0x00, 0x00, 0x02, 0x00, 0x00, 0x00,
	0x04, 0x00, 0x00, 0x00, 0x12, 0x00, 0x00, 0x00, 0x32, 0x2e, 0x32, 0x30,
	0x2e, 0x30, 0x2d, 0x64, 0x65, 0x76, 0x32, 0x30, 0x32, 0x35, 0x30, 0x33,
	0x32, 0x33, 0x00, 0x00, 0x12, 0xcd, 0xff, 0xff, 0x04, 0x00, 0x00, 0x00,
	0x10, 0x00, 0x00, 0x00, 0x32, 0x2e, 0x30, 0x2e, 0x30, 0x00, 0x00, 0x00,
	0x00, 0x00, 0x00, 0x00, 0x00, 0x00, 0x00, 0x00, 0x1c, 0xc7, 0xff, 0xff,
	0x20, 0xc7, 0xff, 0xff, 0x24, 0xc7, 0xff, 0xff, 0x28, 0xc7, 0xff, 0xff,
	0x2c, 0xc7, 0xff, 0xff, 0x42, 0xcd, 0xff, 0xff, 0x04, 0x00, 0x00, 0x00,
	0x00, 0x0f, 0x00, 0x00, 0xbb, 0x9c, 0xbf, 0x3e, 0x9c, 0xb4, 0x93, 0x3f,
	0x17, 0xc0, 0xab, 0xbd, 0x39, 0x9d, 0x1c, 0xbf, 0x7c, 0x47, 0x91, 0x3e,
	0x09, 0xb7, 0x2c, 0xbf, 0x69, 0x1f, 0x71, 0x3e, 0x52, 0x7f, 0xe7, 0xbe,
	0x98, 0x46, 0xdc, 0xbf, 0x8e, 0xec, 0x88, 0xbe, 0xda, 0x54, 0x00, 0xbf,
	0xec, 0x87, 0x5f, 0xbe, 0x03, 0x0f, 0xa2, 0xbd, 0xbf, 0x2e, 0x00, 0x3e,
	0xe2, 0xda, 0xde, 0xbc, 0xf7, 0xee, 0xcc, 0x3e, 0x8c, 0x4c, 0x53, 0x3e,
	0x50, 0x9d, 0x5a, 0xbe, 0x2c, 0x6d, 0x72, 0xbf, 0x0b, 0xab, 0x0c, 0xbf,
	0x02, 0x76, 0xae, 0xbf, 0xbd, 0xb2, 0x9b, 0x3e, 0xa2, 0x3e, 0xdf, 0xbe,
	0x4a, 0x2a, 0xa7, 0xbe, 0x09, 0xf1, 0x59, 0x3d, 0x1e, 0x59, 0x9b, 0xbe,
	0x24, 0x06, 0x88, 0x3e, 0xc5, 0x99, 0xee, 0xbe, 0x55, 0x72, 0x98, 0x3d,
	0xc6, 0x15, 0xab, 0x3d, 0x18, 0x99, 0x92, 0x3e, 0xde, 0x56, 0x9b, 0x3f,
	0x9a, 0x3f, 0x19, 0xbf, 0x21, 0x77, 0xa8, 0x3e, 0xca, 0x7d, 0xc9, 0xbe,
	0xd9, 0xc2, 0x15, 0xbd, 0x4a, 0x54, 0xf4, 0x3d, 0xaa, 0x95, 0x8f, 0x3e,
	0x64, 0x78, 0xa7, 0x3f, 0x5f, 0x19, 0xa9, 0x3e, 0x9c, 0x41, 0x23, 0x3f,
	0x91, 0xe4, 0x9c, 0x3e, 0x8a, 0x51, 0x9c, 0xbe, 0xce, 0x8d, 0xb5, 0x3d,
	0x6d, 0xba, 0x70, 0x3e, 0xd6, 0xf6, 0x10, 0xbe, 0x8a, 0x2d, 0x5f, 0x3e,
	0x43, 0x18, 0x4f, 0x3d, 0x59, 0xfa, 0x16, 0xbe, 0xbc, 0xd2, 0x82, 0xbd,
	0x59, 0x90, 0x3f, 0xc0, 0x38, 0xf2, 0xe1, 0x3e, 0x84, 0x8c, 0xc3, 0xbe,
	0x13, 0x54, 0x15, 0xbe, 0xc3, 0x9f, 0xce, 0xbe, 0xd4, 0x2d, 0x7c, 0xbe,
	0x1b, 0x11, 0x5b, 0x3e, 0x40, 0xc1, 0xee, 0xbd, 0xcf, 0x58, 0x08, 0xbe,
	0xbf, 0x38, 0x39, 0xbd, 0x06, 0xa7, 0xac, 0xbf, 0x91, 0xde, 0xa7, 0xbf,
	0x7a, 0xa6, 0x51, 0xbe, 0xc8, 0xee, 0x85, 0x3e, 0x9e, 0xd2, 0xc2, 0x3e,
	0x83, 0x27, 0x03, 0x40, 0xe9, 0x23, 0x78, 0xbf, 0x06, 0x99, 0x82, 0x3e,
	0xfc, 0xa2, 0x40, 0x3f, 0xf4, 0xe8, 0x42, 0x3f, 0x4c, 0xbc, 0x3f, 0x3f,
	0x48, 0x49, 0x9e, 0x3d, 0x20, 0x2e, 0x89, 0xbe, 0x99, 0x78, 0x6f, 0x3d,
	0x4e, 0xd3, 0x27, 0x3e, 0x65, 0x7a, 0x2c, 0x3f, 0xd2, 0xd5, 0x27, 0x3e,
	0x5c, 0xf5, 0x2d, 0xbe, 0xbf, 0xde, 0x5a, 0x3b, 0xfe, 0x25, 0x54, 0xbf,
	0x0f, 0x2d, 0xbc, 0xbf, 0xb8, 0x53, 0x1b, 0x3f, 0x01, 0x8d, 0x18, 0x3e,
	0xee, 0xb4, 0x0d, 0xc0, 0x25, 0x4d, 0x10, 0xbf, 0x47, 0x04, 0xc7, 0xbe,
	0xe0, 0xa1, 0x39, 0xbd, 0x72, 0x76, 0x61, 0x3d, 0x1f, 0x6b, 0xf8, 0xbe,
	0x06, 0x2e, 0x04, 0x3e, 0x25, 0x83, 0xbe, 0xbe, 0x96, 0xb7, 0x17, 0x3e,
	0x6a, 0x07, 0x3c, 0xbe, 0x1f, 0xa5, 0x73, 0xbf, 0x5d, 0xee, 0x02, 0xbf,
	0x0c, 0x22, 0x09, 0xbf, 0x3b, 0x23, 0xcd, 0x3e, 0x3a, 0x30, 0xc3, 0xbe,
	0xfb, 0x9d, 0xa5, 0xbf, 0xef, 0x67, 0x33, 0x3e, 0xed, 0xdb, 0xc5, 0xbd,
	0x0d, 0x11, 0xac, 0x3c, 0xe1, 0x95, 0xe2, 0xbe, 0xee, 0x4c, 0xe5, 0xbe,
	0xe6, 0xf8, 0x6a, 0x3c, 0x0b, 0x83, 0x47, 0x3f, 0x09, 0x62, 0xc4, 0xbe,
	0x84, 0x38, 0xdb, 0xbd, 0xf3, 0xa0, 0x4d, 0xbf, 0xd8, 0x6e, 0xd3, 0xbe,
	0x3a, 0x2f, 0x07, 0xc0, 0x93, 0xcb, 0x1a, 0xbf, 0x58, 0xaa, 0x65, 0xbf,
	0xf4, 0x78, 0xab, 0x3f, 0x2f, 0x8b, 0xcf, 0xbe, 0xb9, 0x7c, 0xf6, 0x3e,
	0x7a, 0x0d, 0x93, 0xbd, 0x38, 0xa7, 0x92, 0x3d, 0x0f, 0x41, 0x58, 0x3e,
	0x43, 0x6a, 0x0e, 0x3e, 0xb6, 0xdb, 0x52, 0x3e, 0xcb, 0x57, 0x01, 0x3e,
	0x04, 0x8c, 0xe2, 0xbe, 0x27, 0xd2, 0xb5, 0xbe, 0xab, 0x57, 0x86, 0x3c,
	0xa8, 0x3a, 0x71, 0xbd, 0xf5, 0x9e, 0x1a, 0xbe, 0x43, 0x63, 0x97, 0xbe,
	0xee, 0xb8, 0xaf, 0x3d, 0x05, 0x92, 0x2a, 0xbe, 0x1a, 0xe7, 0xd4, 0x3d,
	0x28, 0xec, 0xb9, 0xbe, 0x27, 0xd4, 0xc8, 0x3d, 0x08, 0x5d, 0x9c, 0x3d,
	0x05, 0x9c, 0xed, 0xbc, 0xba, 0x94, 0x87, 0xbc, 0xf2, 0xc5, 0x8c, 0xbd,
	0x5d, 0x67, 0x0b, 0x3e, 0xb7, 0x88, 0x25, 0xbd, 0x79, 0xff, 0xff, 0x3d,
	0xad, 0x2a, 0xcd, 0xbf, 0xf4, 0x15, 0x82, 0x3d, 0x25, 0x83, 0xa8, 0x3b,
	0xba, 0x39, 0xd1, 0x3f, 0x6a, 0x78, 0xf6, 0xbe, 0xeb, 0xec, 0x12, 0x3f,
	0x4e, 0xef, 0x80, 0xbe, 0x2e, 0x99, 0x8c, 0xbe, 0x06, 0x2d, 0xbe, 0xbe,
	0xd5, 0x5c, 0x09, 0xbe, 0xbe, 0x12, 0x15, 0x3e, 0x19, 0x3f, 0xf1, 0x3d,
	0x19, 0x44, 0xe8, 0x3e, 0x8c, 0xf1, 0x88, 0x3e, 0xea, 0x75, 0x32, 0xbc,
	0xe8, 0x48, 0x1e, 0xbf, 0x9e, 0xaf, 0x0d, 0xbf, 0x55, 0x7d, 0xee, 0xbe,
	0x9f, 0xb2, 0x69, 0x3f, 0x3c, 0xbe, 0x72, 0x3e, 0x65, 0xc2, 0x2c, 0x3e,
	0x5a, 0x10, 0x44, 0xbf, 0x3b, 0x1e, 0xe0, 0x3c, 0xdd, 0xdf, 0x3e, 0xbe,
	0xe0, 0x72, 0x38, 0xbe, 0x52, 0x67, 0xaa, 0xbf, 0x75, 0xd5, 0x78, 0x3f,
	0x50, 0x4f, 0x3d, 0x3e, 0xfe, 0x03, 0x79, 0xbc, 0x5f, 0x6a, 0x31, 0x3e,
	0x2f, 0xc3, 0x86, 0x3f, 0x08, 0x57, 0x68, 0xbd, 0xc3, 0x62, 0x90, 0x3e,
	0xb2, 0x52, 0xdc, 0xbe, 0xbf, 0x23, 0x4b, 0x3f, 0x83, 0xbd, 0xef, 0xbe,
	0x63, 0x14, 0x52, 0xbe, 0xf6, 0x2b, 0xb3, 0x3e, 0x7e, 0x50, 0x03, 0x3f,
	0x06, 0x1b, 0x58, 0x3d, 0x7a, 0xa4, 0x04, 0x40, 0xc5, 0xed, 0x04, 0x40,
	0x69, 0x91, 0x6b, 0x3e, 0x84, 0xbc, 0xfe, 0x3d, 0x93, 0x8f, 0x7a, 0xbe,
	0x64, 0xd2, 0xd5, 0xbf, 0x52, 0x90, 0x92, 0x3c, 0x0c, 0xcd, 0x1a, 0x3e,
	0x2f, 0xae, 0x1b, 0x3f, 0x7e, 0xb2, 0x14, 0x3e, 0x87, 0xa6, 0xd4, 0x3e,
	0x10, 0x2b, 0xe9, 0x3e, 0x35, 0x3b, 0x0e, 0xbe, 0xd4, 0xf7, 0x8d, 0x3d,
	0x0c, 0x00, 0x0f, 0x3c, 0xe3, 0x14, 0x20, 0x3d, 0xff, 0xc5, 0x16, 0x3f,
	0x55, 0x31, 0x88, 0xbf, 0x7f, 0x1a, 0xd3, 0xbd, 0x41, 0x40, 0xc3, 0x3e,
	0x83, 0xb1, 0x6a, 0xbe, 0x96, 0x4b, 0xe8, 0xbe, 0x29, 0x43, 0xe6, 0xbc,
	0x1a, 0x6b, 0x12, 0xbf, 0xa6, 0xb2, 0xe8, 0xbd, 0xa1, 0xdb, 0x51, 0x3e,
	0xf1, 0x2f, 0xd0, 0x3f, 0xa0, 0xe4, 0x5a, 0x3e, 0x7d, 0x5f, 0xae, 0xbd,
	0x68, 0x28, 0xca, 0xbe, 0x2e, 0xf7, 0x93, 0x3f, 0x59, 0xbe, 0x13, 0xbd,
	0xad, 0xe2, 0xea, 0xbe, 0xa4, 0xda, 0x61, 0xbe, 0x21, 0xe3, 0x7f, 0xbf,
	0x0a, 0xb5, 0x14, 0xc0, 0x05, 0x15, 0x89, 0x3f, 0xe3, 0xa2, 0x59, 0x3e,
	0x40, 0x77, 0x9a, 0xbd, 0x61, 0xfa, 0xe7, 0xbe, 0x27, 0x51, 0xf5, 0x3e,
	0x10, 0xa4, 0x16, 0x3f, 0x2a, 0x44, 0x31, 0xbe, 0x50, 0x15, 0xb2, 0xbc,
	0x00, 0x6a, 0x93, 0x3e, 0xe1, 0xf7, 0x4b, 0x3f, 0x97, 0x5a, 0x9d, 0xbf,
	0x30, 0xb7, 0x88, 0x3e, 0xc5, 0xb2, 0x85, 0x3d, 0x23, 0x5d, 0x48, 0x3e,
	0xfc, 0x67, 0xc8, 0xbd, 0x51, 0x77, 0xbe, 0xbb, 0x0c, 0x0b, 0x61, 0x3e,
	0x5e, 0xdb, 0x23, 0x3f, 0xc0, 0xf4, 0x86, 0xbe, 0x82, 0x5f, 0x17, 0x3f,
	0xe1, 0x48, 0xe3, 0x3d, 0xed, 0xc5, 0x6f, 0xbd, 0x32, 0x7b, 0x11, 0x3e,
	0xd1, 0x95, 0x8b, 0xbd, 0xce, 0x76, 0xd0, 0xbf, 0xf1, 0xd8, 0xaf, 0x3e,
	0x72, 0xaa, 0xf5, 0xbe, 0x5d, 0xe5, 0x0d, 0xbe, 0x3b, 0x6d, 0x98, 0xbe,
	0xdd, 0x4a, 0xf1, 0xbf, 0xb4, 0x52, 0x90, 0xbe, 0xa0, 0xb3, 0xa6, 0x3d,
	0x4c, 0xfc, 0xa6, 0x3f, 0x91, 0x81, 0x7c, 0x3e, 0x59, 0x05, 0x0f, 0xbe,
	0xd5, 0x31, 0x9b, 0xbd, 0x3d, 0xf7, 0x5e, 0xbd, 0x36, 0xce, 0x8f, 0xbe,
	0x10, 0x82, 0xc6, 0x3d, 0xa6, 0x97, 0xa9, 0x3e, 0xfc, 0x90, 0x39, 0xbf,
	0x20, 0xe7, 0x0b, 0x3e, 0x1d, 0x85, 0xc7, 0x3e, 0x21, 0x46, 0x89, 0x3e,
	0x54, 0x6d, 0x47, 0xc0, 0x1e, 0xde, 0xce, 0x3d, 0x67, 0xb0, 0x8b, 0xbe,
	0xaf, 0xc8, 0x20, 0x40, 0x43, 0xa9, 0xd2, 0xbe, 0xa8, 0x8e, 0xb8, 0xbb,
	0x67, 0xac, 0xf1, 0x3c, 0x2e, 0x41, 0x00, 0x3d, 0x4f, 0x01, 0xe6, 0xbb,
	0x2d, 0x44, 0xda, 0x3d, 0xbb, 0xef, 0x23, 0x3e, 0x26, 0x17, 0x29, 0x3f,
	0xe1, 0x6b, 0x9e, 0x3e, 0xeb, 0x60, 0x0d, 0x3f, 0xc7, 0x49, 0xc2, 0xbd,
	0x88, 0x4f, 0x86, 0x3f, 0x14, 0x1d, 0x52, 0xbe, 0xc1, 0xc0, 0xec, 0xbe,
	0xf5, 0x6e, 0x3a, 0xbd, 0xf0, 0x14, 0x73, 0xbe, 0x36, 0xa1, 0xb8, 0x3e,
	0xa2, 0x73, 0xa6, 0xbe, 0x44, 0xff, 0xc4, 0xbd, 0xa8, 0x7d, 0x2e, 0xbe,
	0xc0, 0xec, 0x1f, 0x3c, 0xbe, 0x98, 0xef, 0xbe, 0xdb, 0x85, 0x23, 0xbf,
	0xcd, 0xa8, 0xb2, 0x3e, 0xfd, 0xc3, 0x9a, 0x3e, 0x89, 0xb9, 0x64, 0xbf,
	0x73, 0x3b, 0x94, 0xbe, 0x95, 0xe0, 0x1c, 0x3f, 0x0c, 0x7a, 0xd3, 0x3e,
	0xcf, 0xe3, 0x4c, 0x3f, 0x41, 0xf1, 0x80, 0xbd, 0x51, 0x67, 0x9c, 0x3d,
	0x89, 0x6e, 0x13, 0x3d, 0x44, 0xb4, 0x37, 0xbe, 0x6d, 0x79, 0x02, 0x3e,
	0xc2, 0xa7, 0xe5, 0x3f, 0x5f, 0x23, 0xcc, 0xbe, 0x31, 0x44, 0xf4, 0xbc,
	0xd6, 0x50, 0x0b, 0xbf, 0x11, 0x59, 0xa9, 0xbe, 0xcb, 0x0d, 0xe7, 0x3d,
	0x33, 0x96, 0x8f, 0xbf, 0x34, 0x0f, 0x31, 0x3e, 0x2c, 0xbd, 0x98, 0xbd,
	0xf7, 0x92, 0xaa, 0xbf, 0x75, 0x38, 0x39, 0xbe, 0x85, 0xb2, 0x54, 0xbe,
	0xc6, 0x30, 0x20, 0xbf, 0x65, 0x8d, 0xaf, 0xbd, 0xc5, 0xdf, 0x4b, 0x3d,
	0x7d, 0x20, 0xc6, 0x3d, 0x59, 0x67, 0x7d, 0x3f, 0x05, 0xf9, 0x5b, 0x3e,
	0xdb, 0x99, 0x31, 0xbf, 0x8a, 0xf6, 0x2b, 0xbe, 0xb6, 0x95, 0xad, 0xbe,
	0x86, 0xc6, 0x19, 0xc0, 0x70, 0xdb, 0x12, 0x3e, 0xa4, 0x24, 0x2b, 0x3f,
	0xaa, 0x65, 0xab, 0xbf, 0x49, 0xf7, 0x68, 0xbf, 0x6d, 0xe7, 0x8d, 0xbe,
	0x38, 0x1a, 0x42, 0x3f, 0xeb, 0x26, 0xe8, 0x3e, 0x0b, 0x18, 0x79, 0xbf,
	0x0e, 0x32, 0xa0, 0x3e, 0x80, 0x8b, 0xcd, 0x3d, 0xad, 0x91, 0xac, 0x3f,
	0xf8, 0x46, 0x12, 0xbf, 0x25, 0x05, 0x13, 0xbe, 0x81, 0x2f, 0x96, 0x3e,
	0xb2, 0x6d, 0x07, 0x40, 0x67, 0x9c, 0x26, 0xbd, 0x46, 0x3d, 0x84, 0x3d,
	0xd3, 0x8d, 0x02, 0xbf, 0x5c, 0x71, 0x90, 0x3e, 0xbb, 0x77, 0x00, 0xbf,
	0xbb, 0x0e, 0x61, 0x3e, 0xa1, 0xc8, 0xf1, 0xbd, 0xbb, 0xbc, 0x31, 0x3e,
	0xf5, 0xfe, 0x39, 0xbe, 0x01, 0x7a, 0x34, 0xbf, 0x22, 0x98, 0xca, 0xbe,
	0x6f, 0x55, 0x3d, 0xc0, 0xeb, 0xc3, 0x56, 0xbc, 0x1c, 0xa5, 0x0a, 0xbe,
	0x01, 0xe0, 0xb1, 0x3f, 0xa9, 0xd6, 0xb2, 0x3e, 0x9d, 0x5a, 0x5e, 0xbe,
	0x31, 0x60, 0x93, 0x3f, 0x51, 0xe9, 0xdc, 0x3e, 0xd6, 0x36, 0x62, 0x3e,
	0x0d, 0xd9, 0xf4, 0x3f, 0x86, 0x80, 0x13, 0xbe, 0x5f, 0xaa, 0xc7, 0x3e,
	0x26, 0xa9, 0x16, 0x3e, 0x56, 0xc9, 0x99, 0xbe, 0xae, 0x41, 0x56, 0xbf,
	0xf6, 0x49, 0x45, 0x3e, 0xbd, 0x86, 0x28, 0x3e, 0x71, 0xee, 0x86, 0xbe,
	0x5a, 0x40, 0x20, 0x40, 0x7f, 0x1a, 0x36, 0x3c, 0xe3, 0x1b, 0x9a, 0xbd,
	0x2a, 0x87, 0x55, 0x3f, 0x4f, 0xeb, 0x03, 0x3f, 0x65, 0x63, 0xe3, 0x3e,
	0xbc, 0x60, 0x64, 0xbf, 0xe4, 0xed, 0xaf, 0x3d, 0x56, 0xf1, 0x5f, 0x3d,
	0xdd, 0xcb, 0x58, 0x3d, 0xa6, 0x28, 0x02, 0x40, 0xef, 0x21, 0xef, 0xbe,
	0x86, 0x51, 0x9b, 0xbc, 0x38, 0xa9, 0x69, 0x3e, 0xc6, 0x12, 0x12, 0x3e,
	0xb5, 0x78, 0xe5, 0xbf, 0x06, 0x59, 0xd7, 0xbd, 0x10, 0x99, 0x12, 0xbe,
	0x38, 0xd3, 0x77, 0x3e, 0xa4, 0x3e, 0x10, 0xbf, 0x8b, 0x37, 0x53, 0x3e,
	0xab, 0x61, 0x30, 0xbe, 0x37, 0x36, 0xa1, 0xbc, 0x92, 0x88, 0x08, 0xbe,
	0xf9, 0xc1, 0x12, 0x3a, 0x13, 0x20, 0xc1, 0xbe, 0xeb, 0xf4, 0xa0, 0xbe,
	0x64, 0xf7, 0x60, 0x3e, 0x89, 0x99, 0xe1, 0xbd, 0x6c, 0xa7, 0x31, 0x3f,
	0xb4, 0x15, 0xb9, 0x3f, 0x81, 0x73, 0x5b, 0xbf, 0x5e, 0x93, 0x08, 0x3f,
	0xb8, 0x9f, 0x24, 0x40, 0x5e, 0x12, 0x2f, 0xbe, 0x27, 0xa9, 0x7f, 0xbf,
	0x0c, 0x86, 0xcf, 0xbd, 0xb7, 0x97, 0x4d, 0xbc, 0xff, 0xcd, 0xc3, 0x3c,
	0x37, 0xc1, 0xd5, 0xbd, 0x45, 0x66, 0x0b, 0x3e, 0xad, 0xf7, 0x73, 0x3d,
	0x34, 0x23, 0xbf, 0xbe, 0x71, 0xc2, 0xec, 0xbd, 0xa8, 0xc8, 0xea, 0xbd,
	0x33, 0x1c, 0x01, 0x3f, 0xca, 0x5b, 0xb5, 0x3d, 0xad, 0x44, 0x8c, 0xbf,
	0xde, 0xd7, 0x93, 0x3e, 0x48, 0xd4, 0xfe, 0x3d, 0xcc, 0x2f, 0xed, 0x3e,
	0x2d, 0x22, 0x0f, 0x3e, 0x9a, 0x8f, 0x1b, 0x39, 0xd3, 0x1e, 0xc0, 0x3d,
	0x47, 0x6c, 0x1a, 0xbe, 0x39, 0x64, 0x18, 0x3f, 0x37, 0xcb, 0x8e, 0xbe,
	0x5f, 0xfe, 0xee, 0xbe, 0x30, 0xfb, 0x9f, 0x3e, 0xf7, 0x13, 0xf3, 0x3e,
	0x3c, 0xb8, 0xfa, 0xbe, 0x7b, 0x16, 0x86, 0xbe, 0x7a, 0x93, 0x83, 0x3e,
	0xa3, 0x36, 0xed, 0x3f, 0x96, 0xc3, 0x1b, 0xbe, 0xad, 0x75, 0x67, 0x3f,
	0x6c, 0x54, 0xce, 0x3e, 0x1d, 0x39, 0x65, 0x3e, 0x8c, 0xaf, 0x40, 0xbd,
	0x68, 0x47, 0xf4, 0x3c, 0x90, 0x87, 0xf0, 0x3e, 0x1b, 0x49, 0xd0, 0x3e,
	0xe5, 0x62, 0x0c, 0x3e, 0xd1, 0x0b, 0x51, 0x3e, 0x44, 0x4e, 0xf5, 0x3d,
	0x6e, 0xce, 0xf3, 0xbd, 0xe4, 0x2d, 0x5b, 0xbe, 0x41, 0xd2, 0x87, 0x3e,
	0x44, 0x99, 0xa1, 0xbe, 0x34, 0x47, 0xae, 0x3d, 0x37, 0x58, 0x50, 0xbe,
	0xb9, 0x7f, 0x54, 0x3d, 0x08, 0x21, 0x8e, 0x3d, 0x38, 0x45, 0x02, 0xbe,
	0xde, 0x84, 0xc3, 0xbd, 0xb8, 0xc0, 0x71, 0xbe, 0xd9, 0x97, 0xc6, 0xbe,
	0xd9, 0x4d, 0x86, 0xbe, 0x63, 0x69, 0x10, 0x3e, 0x3f, 0xbf, 0x90, 0xbf,
	0xf5, 0x0a, 0xa8, 0xbe, 0xf9, 0x4a, 0x99, 0x3f, 0x34, 0xa1, 0x02, 0x3e,
	0x72, 0xb3, 0xaf, 0x3f, 0xf6, 0xa1, 0x2a, 0x3e, 0x1d, 0x2c, 0x6c, 0x3e,
	0x96, 0x10, 0xd1, 0x3d, 0x8f, 0x0f, 0x76, 0x3e, 0xb5, 0x91, 0xc6, 0x3d,
	0xf8, 0x15, 0xee, 0x3e, 0xdb, 0x6b, 0xf6, 0xbd, 0xbc, 0x80, 0x4f, 0xbd,
	0x53, 0xbc, 0x61, 0xc0, 0x7b, 0xae, 0x01, 0x3e, 0x35, 0xb9, 0x2f, 0x3e,
	0xc4, 0x78, 0x58, 0x3d, 0x0d, 0x69, 0xb8, 0xbd, 0x73, 0x98, 0x49, 0xbc,
	0x80, 0xb7, 0x98, 0x3d, 0xad, 0x17, 0xec, 0xbd, 0x8b, 0x45, 0x79, 0x3d,
	0x61, 0x30, 0xb9, 0x3e, 0x99, 0x32, 0x11, 0x3d, 0xae, 0x35, 0xbc, 0xbd,
	0x3f, 0xf5, 0x0b, 0xbc, 0x44, 0x4c, 0xc6, 0xbe, 0x94, 0xb5, 0xb1, 0x3d,
	0x2a, 0x6e, 0xa8, 0x3d, 0x66, 0x47, 0x3b, 0xbe, 0xc5, 0x77, 0x81, 0xbd,
	0x63, 0xef, 0xa6, 0x3f, 0x96, 0x06, 0xb6, 0x3e, 0x5a, 0x22, 0xc2, 0xbe,
	0x5a, 0x78, 0x2d, 0xbe, 0x46, 0x0b, 0xa8, 0x3e, 0x21, 0x05, 0x80, 0xbe,
	0x50, 0x79, 0xff, 0xbe, 0xbe, 0x2e, 0xde, 0x3d, 0x93, 0x1e, 0xef, 0xbd,
	0xf9, 0x54, 0x48, 0xbd, 0x95, 0xff, 0x0e, 0x3f, 0xb7, 0xaf, 0x1b, 0xbf,
	0xd0, 0x32, 0x4d, 0xbe, 0xea, 0x7c, 0x62, 0xbe, 0x72, 0x9d, 0x93, 0xbf,
	0x5d, 0x77, 0x87, 0x3f, 0x94, 0x1a, 0x39, 0x3f, 0xb7, 0xb9, 0x48, 0x3d,
	0x7b, 0xf3, 0xd8, 0x3f, 0xa5, 0xa5, 0x77, 0xbf, 0x26, 0x84, 0x3c, 0xbd,
	0xfa, 0x7e, 0x17, 0x3f, 0xce, 0xef, 0xcf, 0xbd, 0x13, 0xb5, 0x1d, 0x3e,
	0x6e, 0x17, 0x39, 0x3e, 0x8e, 0x61, 0x8c, 0x3c, 0xf0, 0xa0, 0x10, 0x3f,
	0x20, 0x26, 0x22, 0xbf, 0x4f, 0x63, 0x07, 0xbf, 0xf7, 0x39, 0x0f, 0xbf,
	0xe5, 0x7d, 0x75, 0x3e, 0x66, 0x57, 0x21, 0x3f, 0x42, 0x92, 0x2e, 0xbe,
	0xda, 0xf6, 0x06, 0x3f, 0xb9, 0x9c, 0x86, 0x3e, 0xe4, 0x93, 0x28, 0x3e,
	0xe6, 0xc6, 0xb5, 0xbe, 0x38, 0x15, 0x5f, 0xbc, 0xbc, 0x3a, 0x04, 0x3e,
	0xa8, 0xf0, 0x20, 0xbd, 0x40, 0x31, 0xbf, 0xbf, 0x03, 0x02, 0xe1, 0xbe,
	0x0c, 0x63, 0x58, 0x3f, 0x52, 0xd2, 0x19, 0xbd, 0xf1, 0x6d, 0x95, 0xbd,
	0xda, 0xca, 0xcb, 0x3f, 0xb7, 0x84, 0xa8, 0x3e, 0x61, 0xb2, 0xc6, 0x3d,
	0x00, 0x64, 0x80, 0x3d, 0xa0, 0xe9, 0x3c, 0x3f, 0x2c, 0x2b, 0x96, 0x3d,
	0x53, 0x9a, 0x97, 0x3c, 0x1f, 0xed, 0x10, 0x3d, 0x97, 0x0f, 0xa9, 0xbd,
	0x6b, 0xfd, 0x68, 0x3c, 0xeb, 0x1c, 0x99, 0xbe, 0xfe, 0x65, 0xd2, 0xbe,
	0x86, 0x5f, 0x42, 0xbf, 0xa5, 0x13, 0x40, 0xbe, 0x1d, 0x74, 0x79, 0x3e,
	0x01, 0x34, 0x58, 0x3f, 0x4f, 0x26, 0xdc, 0x3d, 0x92, 0xd0, 0xf8, 0xbe,
	0xb1, 0x09, 0x0d, 0xbf, 0x25, 0xc8, 0xcc, 0xbc, 0xef, 0x57, 0x85, 0x3e,
	0x4e, 0x58, 0xe1, 0xbe, 0xad, 0x4f, 0xbc, 0xbe, 0x84, 0x41, 0x1f, 0xbf,
	0xc9, 0xff, 0x73, 0xbb, 0x67, 0xb3, 0x14, 0xbe, 0x5f, 0x13, 0x22, 0xbf,
	0x99, 0xa9, 0xa9, 0xbe, 0x05, 0x72, 0x25, 0xbe, 0xc4, 0x9e, 0xf7, 0x3d,
	0x52, 0x1a, 0x45, 0x3f, 0x8d, 0x48, 0x69, 0xbd, 0xf1, 0x63, 0xa6, 0xbd,
	0xa9, 0xda, 0x90, 0xbf, 0x67, 0x51, 0xc2, 0x3f, 0xca, 0x62, 0xfb, 0xbe,
	0xa4, 0x4b, 0x5f, 0xbe, 0x5b, 0x0a, 0x6e, 0x3d, 0xff, 0xbc, 0xb2, 0x3d,
	0xd5, 0xb7, 0xca, 0xbd, 0x3e, 0xa0, 0x4e, 0xbe, 0x87, 0xc7, 0xa5, 0x3e,
	0xb7, 0xd7, 0x05, 0x3f, 0xa9, 0x70, 0x6c, 0x3d, 0x40, 0x68, 0x7f, 0x3f,
	0x87, 0xa8, 0x36, 0xbf, 0x08, 0xc4, 0x84, 0xbc, 0x37, 0x8f, 0x91, 0xbe,
	0xde, 0xce, 0x16, 0xc0, 0x68, 0xf2, 0xd2, 0x3d, 0xa6, 0x6c, 0xd5, 0xbe,
	0xa5, 0xd6, 0x80, 0xbe, 0xc8, 0x4c, 0xfd, 0xbc, 0xdb, 0x48, 0x76, 0x3e,
	0x21, 0x2e, 0x97, 0xbd, 0x9b, 0x5c, 0x1a, 0xbf, 0xe4, 0x11, 0x3d, 0x3f,
	0x78, 0x5c, 0xa9, 0xbe, 0xcf, 0xce, 0x16, 0x3e, 0xe7, 0x85, 0x90, 0xbe,
	0x28, 0xae, 0xf0, 0xbf, 0x0d, 0xf8, 0xb2, 0x3e, 0xed, 0x94, 0x24, 0xbe,
	0xc1, 0xa2, 0x5d, 0x3f, 0xe3, 0x1e, 0x4c, 0x3f, 0x20, 0x43, 0x26, 0xbf,
	0x37, 0xc1, 0xff, 0x3d, 0xd5, 0x97, 0xfb, 0xbd, 0xa8, 0x76, 0x84, 0xbc,
	0x3e, 0x2c, 0xbc, 0x3d, 0x6c, 0x90, 0x89, 0xbe, 0xca, 0x76, 0x1a, 0xbf,
	0x02, 0xb1, 0x72, 0xbd, 0xf0, 0x07, 0xdf, 0xbe, 0xfd, 0x6e, 0x81, 0xbe,
	0x0a, 0x1f, 0x5d, 0xbe, 0x14, 0x29, 0xcb, 0x3e, 0x2b, 0x56, 0x8f, 0xbf,
	0x77, 0x77, 0xba, 0xbe, 0xd0, 0xaa, 0xcd, 0xbc, 0x7e, 0x8e, 0x36, 0x3e,
	0x22, 0x23, 0x30, 0x3f, 0xf4, 0x85, 0xb7, 0xbd, 0xd5, 0x1a, 0x3d, 0xbe,
	0xb6, 0x34, 0x28, 0x3e, 0x26, 0x6a, 0x14, 0xbd, 0xca, 0x8c, 0x32, 0xbe,
	0x19, 0xd2, 0x81, 0xbe, 0x12, 0x3f, 0x72, 0x3d, 0xef, 0xc9, 0x91, 0xbb,
	0xa1, 0x20, 0x12, 0xbf, 0xbd, 0x9e, 0xfc, 0xbe, 0x14, 0x0e, 0x53, 0xbf,
	0xff, 0xad, 0x09, 0xbf, 0xae, 0xf3, 0x77, 0xbe, 0x81, 0xd9, 0x6d, 0x3e,
	0x92, 0x94, 0xda, 0xbd, 0x6d, 0x0c, 0x38, 0x3e, 0x5b, 0x1d, 0x6e, 0x3e,
	0x33, 0x9c, 0x00, 0x3d, 0xf0, 0x4e, 0x53, 0xbf, 0xd0, 0x9c, 0x18, 0xbe,
	0x30, 0xb2, 0xf7, 0xbe, 0xaa, 0x13, 0xd5, 0xbe, 0x8c, 0x7c, 0xef, 0x3e,
	0xfc, 0xfc, 0x19, 0x40, 0x2b, 0x69, 0x72, 0xbf, 0x1c, 0x25, 0x92, 0xbe,
	0x08, 0x1b, 0xa8, 0x3f, 0x9a, 0xaf, 0xfa, 0x3e, 0xa7, 0x90, 0x4b, 0xbd,
	0xcc, 0x2c, 0x64, 0x3e, 0x35, 0xa5, 0x58, 0x3d, 0xf5, 0xc4, 0xe6, 0xbe,
	0x13, 0xf5, 0x79, 0x3d, 0xa7, 0xf9, 0x18, 0xbe, 0x89, 0x9d, 0x0c, 0x3f,
	0xa2, 0x4b, 0xd2, 0xbe, 0x34, 0xb8, 0xc8, 0x3d, 0x53, 0x21, 0x81, 0x3f,
	0x6f, 0x40, 0x94, 0xbf, 0x29, 0x2b, 0x30, 0xbf, 0xf1, 0x5c, 0x93, 0xbd,
	0xf2, 0xb6, 0x7f, 0xbf, 0xf4, 0xf4, 0x54, 0x3d, 0x87, 0xbb, 0x06, 0xbe,
	0x18, 0x6c, 0xfd, 0xbc, 0x06, 0x4e, 0x56, 0x3e, 0xed, 0x9f, 0x9f, 0xbe,
	0x35, 0x05, 0xd8, 0x3e, 0xfb, 0xc7, 0x47, 0xbd, 0x35, 0x8c, 0x33, 0x3e,
	0xea, 0xde, 0xf0, 0x3d, 0x97, 0x21, 0x3f, 0x3e, 0x99, 0x33, 0x37, 0xbe,
	0x12, 0x67, 0x4a, 0xbf, 0x4b, 0xb5, 0xdf, 0xbd, 0x7e, 0x14, 0x12, 0xbf,
	0xc5, 0xa6, 0xa7, 0xbe, 0xed, 0x32, 0x87, 0xbd, 0x3b, 0xf0, 0x54, 0xbe,
	0x8d, 0x5e, 0x2a, 0xbf, 0x80, 0x10, 0xcc, 0xba, 0xdc, 0x45, 0x9a, 0xbd,
	0x34, 0xc8, 0xd8, 0x3d, 0x59, 0xfc, 0xb3, 0xbd, 0xeb, 0x2d, 0x2b, 0x3f,
	0x12, 0x12, 0x2b, 0x3f, 0x61, 0x81, 0x79, 0xbe, 0x43, 0x38, 0x80, 0xbe,
	0xe8, 0x21, 0x4c, 0xbe, 0x31, 0x2c, 0xbb, 0x3e, 0xa3, 0x8f, 0x18, 0xbe,
	0xbf, 0xe9, 0x9a, 0x3f, 0x61, 0x69, 0x22, 0x3f, 0x85, 0x7e, 0xf0, 0x3c,
	0xac, 0xab, 0xcb, 0xbd, 0x2f, 0x5a, 0xc8, 0xbd, 0x8e, 0x72, 0xb5, 0x3c,
	0x8c, 0x26, 0xe6, 0x3e, 0x65, 0x82, 0xe3, 0xbd, 0x71, 0x07, 0x30, 0x3f,
	0x7d, 0xcd, 0xf3, 0xbd, 0x58, 0x34, 0x98, 0xbf, 0x0e, 0xd7, 0xf6, 0x3e,
	0x8b, 0x11, 0xa4, 0x3f, 0x96, 0x7c, 0xf4, 0xbe, 0x11, 0x39, 0xdd, 0xbe,
	0x3b, 0x01, 0x23, 0xc0, 0x4a, 0x35, 0x20, 0xbd, 0xd9, 0x88, 0xe9, 0xbe,
	0xe3, 0xc4, 0x19, 0x3f, 0x4b, 0x24, 0x40, 0xbe, 0x7f, 0xcc, 0x4c, 0xbd,
	0x5b, 0x4d, 0x55, 0x3e, 0xe8, 0x65, 0x37, 0x3e, 0xa7, 0x9c, 0x58, 0xbf,
	0x33, 0xfa, 0xa9, 0xbe, 0x6f, 0x3e, 0x4c, 0x3e, 0x3e, 0x14, 0x9b, 0xbf,
	0x82, 0xd4, 0x9e, 0xbf, 0xa7, 0x18, 0x7e, 0x3f, 0x4c, 0xb2, 0xf3, 0xbe,
	0x1d, 0xbb, 0xbf, 0xbe, 0x4d, 0xe9, 0x23, 0xbe, 0x7b, 0x63, 0xca, 0xbe,
	0xd0, 0x2d, 0x0a, 0x3e, 0x15, 0x6b, 0xf1, 0x3d, 0xd7, 0xfa, 0x7b, 0x3c,
	0x60, 0x01, 0x6b, 0x3e, 0x94, 0xe8, 0x00, 0x3f, 0x2b, 0x72, 0xc3, 0xbf,
	0xe0, 0xc1, 0x11, 0xbf, 0xef, 0x2b, 0xd1, 0x3e, 0x80, 0x40, 0x4d, 0x3e,
	0x69, 0xfd, 0xd2, 0xbe, 0x96, 0xd4, 0x04, 0x3f, 0xa1, 0x9f, 0x89, 0x3e,
	0x30, 0xc1, 0x15, 0x40, 0xce, 0x75, 0xc4, 0xbe, 0x3d, 0xc0, 0x95, 0x3f,
	0xc2, 0x79, 0x2e, 0x3f, 0x17, 0x99, 0x22, 0xbf, 0x1a, 0xd0, 0x9a, 0xbd,
	0xff, 0x60, 0x88, 0x3c, 0xca, 0xba, 0xf5, 0x3e, 0x84, 0x6d, 0x76, 0xbf,
	0x8e, 0xc9, 0x0e, 0xbe, 0x38, 0xf5, 0x6b, 0x3d, 0xc0, 0x6c, 0x30, 0x3f,
	0xb2, 0x83, 0x6a, 0xbe, 0xd1, 0x23, 0x2f, 0xbf, 0xcc, 0x9d, 0xda, 0xba,
	0x09, 0x71, 0x60, 0x3e, 0xf0, 0x64, 0x2b, 0xbf, 0x01, 0x9f, 0x20, 0x3f,
	0xfe, 0x53, 0x6c, 0xbc, 0x3d, 0x2f, 0xe4, 0xbb, 0xc9, 0xac, 0x0d, 0xbf,
	0x15, 0x20, 0xcd, 0xbd, 0xf9, 0x36, 0xde, 0x3e, 0x87, 0xd2, 0xcc, 0x3e,
	0x51, 0x1b, 0x90, 0xc0, 0x16, 0xba, 0x80, 0x3e, 0x9f, 0x4b, 0x1a, 0x3e,
	0x40, 0xb9, 0xd4, 0xbe, 0xec, 0xe9, 0x5d, 0xbd, 0xea, 0xb3, 0x0c, 0x39,
	0xb1, 0x16, 0xcc, 0xbe, 0xfc, 0x2b, 0x37, 0xbe, 0x15, 0x94, 0x70, 0xbe,
	0x4b, 0x90, 0x69, 0x3f, 0x5e, 0xfe, 0x2a, 0x3e, 0x41, 0xb9, 0x06, 0x3a,
	0xc1, 0x70, 0x02, 0x3d, 0x7b, 0xe4, 0x60, 0xbd, 0x00, 0x56, 0x08, 0xbf,
	0xd2, 0x66, 0x4b, 0x3f, 0x98, 0x94, 0x73, 0xbe, 0xdd, 0x6b, 0xa0, 0x3f,
	0xf4, 0x50, 0xa4, 0xbf, 0xba, 0x21, 0x88, 0xbf, 0x8c, 0x93, 0x40, 0xbe,
	0x9b, 0x32, 0x1f, 0x3f, 0x6d, 0x11, 0xd1, 0xbe, 0xd6, 0xa7, 0xb7, 0x3d,
	0x75, 0x96, 0x4b, 0xbe, 0x2c, 0x8c, 0x60, 0xbe, 0x61, 0x82, 0xcd, 0xbd,
	0x31, 0xee, 0x13, 0x3f, 0xd7, 0x45, 0x34, 0xbf, 0x44, 0x4e, 0x2e, 0x3f,
	0x5f, 0x41, 0x91, 0xbe, 0xe5, 0x37, 0xb0, 0x3e, 0x8c, 0x62, 0x1b, 0x3e,
	0x46, 0x66, 0xab, 0x3f, 0x66, 0x4f, 0xce, 0x3e, 0x82, 0xa8, 0x06, 0x3e,
	0xde, 0x98, 0x29, 0xbf, 0x38, 0x32, 0xdc, 0x3e, 0xa3, 0x22, 0x93, 0x3d,
	0x0d, 0x50, 0x8b, 0x3f, 0xcb, 0xc9, 0xc2, 0x3d, 0x6e, 0x16, 0xb4, 0x3e,
	0x7a, 0x54, 0x41, 0xbe, 0xd9, 0x32, 0xa0, 0x3f, 0xbb, 0x78, 0x47, 0xbe,
	0xa9, 0x76, 0x67, 0x3f, 0xc4, 0xd1, 0x1b, 0x3e, 0xb8, 0xc8, 0x01, 0xbf,
	0x69, 0x9f, 0x78, 0x3e, 0x5f, 0xe8, 0x02, 0x3f, 0x16, 0x21, 0x96, 0x3e,
	0xef, 0xfe, 0xa2, 0x3d, 0x8a, 0xd8, 0x85, 0xbf, 0x8d, 0x62, 0x2d, 0xbe,
	0x3e, 0x10, 0x27, 0x3e, 0xff, 0x98, 0x7c, 0xbb, 0xe3, 0x5d, 0xb3, 0xbb,
	0xc6, 0x12, 0x7a, 0xbd, 0xf9, 0x8a, 0xf6, 0x3e, 0xb8, 0x44, 0xd7, 0xbe,
	0xaa, 0x56, 0x1b, 0xbf, 0x65, 0x24, 0xdc, 0x3e, 0x4e, 0x56, 0x91, 0xbd,
	0x99, 0x31, 0x0d, 0x40, 0xc6, 0x04, 0x04, 0x3f, 0xb2, 0x52, 0x4b, 0xbe,
	0x79, 0x11, 0xe1, 0xbf, 0x1d, 0x75, 0xcc, 0x3c, 0xaf, 0x7d, 0xcc, 0x3e,
	0x2d, 0x6a, 0x96, 0xbe, 0xf9, 0xcb, 0x9f, 0x3d, 0x4c, 0xa4, 0xae, 0x3d,
	0x9b, 0x88, 0x02, 0x3e, 0x6f, 0xea, 0x09, 0xbe, 0x8b, 0x3e, 0xaa, 0xbe,
	0x0d, 0xb9, 0xad, 0xbe, 0xdd, 0x16, 0x85, 0xbf, 0xda, 0xc7, 0xaa, 0x3e,
	0x45, 0xa5, 0xb4, 0x3e, 0x3f, 0xe4, 0xcb, 0xbe, 0x84, 0xcc, 0x44, 0xbf,
	0xb9, 0x38, 0x14, 0x40, 0xa3, 0x70, 0x7d, 0x3e, 0xfb, 0x66, 0x0b, 0x3f,
	0xab, 0x56, 0x1b, 0x3e, 0xf7, 0xcd, 0x1b, 0x3e, 0x6e, 0x9f, 0x45, 0xbe,
	0x43, 0xc3, 0xb0, 0x3c, 0xf3, 0x36, 0x1c, 0x3f, 0xe4, 0x06, 0x07, 0x40,
	0x62, 0x9d, 0xab, 0x3e, 0x42, 0xf8, 0x74, 0x3e, 0x11, 0xc1, 0x8a, 0xbc,
	0xb7, 0x2a, 0xd9, 0xbe, 0x5c, 0x28, 0xa0, 0x3d, 0xee, 0x38, 0x7f, 0x3e,
	0xf8, 0x7c, 0xb1, 0xbf, 0xcd, 0x3d, 0x4d, 0xbe, 0x34, 0xd0, 0x25, 0xbf,
	0x92, 0x9d, 0x6a, 0xbe, 0x53, 0x6f, 0x25, 0x3d, 0x09, 0xe7, 0xe5, 0xbd,
	0xcd, 0xfb, 0x37, 0xbc, 0x48, 0x12, 0xae, 0x3a, 0x3b, 0x4c, 0x25, 0x3f,
	0x3b, 0x61, 0x44, 0x3f, 0x29, 0x7e, 0x1a, 0xbf, 0xe8, 0x0d, 0xe8, 0xbc,
	0xdf, 0x21, 0xf4, 0xbe, 0xeb, 0xfc, 0x16, 0x3e, 0x77, 0x02, 0x37, 0xbf,
	0xe6, 0xcc, 0xf7, 0xbe, 0xe8, 0x39, 0x0b, 0xbd, 0xf8, 0xca, 0xb6, 0xbd,
	0x90, 0x79, 0x07, 0x3e, 0x73, 0xa4, 0x4a, 0x3e, 0x86, 0xe9, 0x09, 0x3e,
	0x18, 0x9e, 0x87, 0xbd, 0xe2, 0x06, 0xd0, 0xbd, 0x8d, 0xf3, 0x18, 0x3f,
	0x74, 0x6b, 0xa4, 0xbf, 0x4e, 0xf5, 0x0d, 0xbd, 0xb3, 0x09, 0x07, 0xbf,
	0x59, 0x1a, 0x6a, 0xbf, 0xea, 0x9c, 0xdc, 0x3c, 0x75, 0xd6, 0xaa, 0x3e,
	0x00, 0xb4, 0x98, 0xbf, 0x0f, 0x8e, 0x06, 0xbf, 0x2b, 0x39, 0xfd, 0xbe,
	0x61, 0x73, 0xe0, 0x3f, 0xaf, 0x27, 0x2c, 0x3e, 0xd1, 0xea, 0x5b, 0x3e,
	0x2e, 0x8b, 0x45, 0x3e, 0xa1, 0x24, 0x63, 0xbf, 0x22, 0x0e, 0x2f, 0xbd,
	0x63, 0xd2, 0x74, 0x3d, 0xbc, 0x44, 0x07, 0xbe, 0xc1, 0x31, 0x02, 0x3f,
	0x57, 0x43, 0x66, 0xbe, 0xa7, 0x5c, 0xe9, 0xbe, 0xd8, 0xba, 0x87, 0x3d,
	0xe2, 0x82, 0x1d, 0xc0, 0x5e, 0xf3, 0x4c, 0xbe, 0x3b, 0x90, 0xe3, 0xbe,
	0x73, 0x7b, 0x9b, 0xbd, 0xe8, 0xc0, 0x2a, 0xbd, 0x6a, 0xc7, 0x2f, 0xbd,
	0xff, 0xfd, 0x08, 0xbd, 0x89, 0xa0, 0x38, 0xbf, 0xeb, 0xf0, 0x6a, 0x3d,
	0xa3, 0x47, 0xd4, 0xbd, 0xea, 0x9a, 0xde, 0xbd, 0x39, 0xeb, 0xe2, 0xbe,
	0xf7, 0x08, 0x36, 0x40, 0x7a, 0x52, 0x57, 0x3f, 0xb5, 0xf7, 0xc6, 0xbd,
	0x62, 0x4b, 0x8f, 0xbf, 0x4f, 0x81, 0x45, 0x3e, 0xad, 0x24, 0x77, 0x3e,
	0xfd, 0xab, 0x25, 0xbe, 0x62, 0x6a, 0xee, 0x3d, 0x60, 0x9b, 0x82, 0xbd,
	0x5c, 0x94, 0x2b, 0x3e, 0xa4, 0xc8, 0xf5, 0x3e, 0x33, 0xdd, 0x2b, 0xbf,
	0x80, 0x5a, 0x8b, 0xbf, 0x30, 0x83, 0x43, 0xbe, 0x01, 0x35, 0xe7, 0xbe,
	0xd8, 0x77, 0x39, 0x40, 0x7f, 0x50, 0x47, 0xbe, 0x27, 0xb6, 0x71, 0x3d,
	0xbc, 0xf1, 0x6e, 0xbf, 0xf2, 0x64, 0x6d, 0xbf, 0x14, 0x5e, 0x15, 0x3f,
	0x50, 0x9a, 0x01, 0xbf, 0x69, 0x36, 0x8a, 0x3d, 0xc0, 0xb2, 0x64, 0xbd,
	0x9a, 0xb6, 0x03, 0x3e, 0x39, 0xde, 0xc0, 0xbd, 0x43, 0xaa, 0x4d, 0xbf,
	0x72, 0xba, 0x5e, 0xc0, 0x00, 0x09, 0xf1, 0xbd, 0x1c, 0xc6, 0x67, 0xbe,
	0x50, 0x03, 0x04, 0x3f, 0x30, 0x24, 0x6a, 0x3d, 0xbe, 0x1d, 0x9b, 0x3c,
	0x84, 0x41, 0x15, 0x3f, 0xd3, 0x93, 0xa0, 0x3d, 0x72, 0x58, 0x9d, 0x3e,
	0xb8, 0x04, 0xc8, 0x3f, 0x94, 0xf8, 0x07, 0x3d, 0x43, 0x4d, 0xc5, 0x3d,
	0x1e, 0xcc, 0x8d, 0xbe, 0x5a, 0x19, 0x1f, 0xbf, 0x8f, 0x8c, 0x1e, 0x3f,
	0xdb, 0x19, 0x8a, 0xbf, 0xbf, 0xea, 0x54, 0x3e, 0x7b, 0x0b, 0x63, 0xbf,
	0x1c, 0xbf, 0xd5, 0x3f, 0x75, 0x0f, 0x5c, 0x3f, 0x98, 0x3f, 0xdd, 0xbc,
	0xda, 0xd7, 0x7a, 0xbf, 0x71, 0xfd, 0x81, 0x3e, 0xb6, 0x31, 0x44, 0xbf,
	0x85, 0x8e, 0x52, 0x3f, 0x7b, 0x63, 0x91, 0x3e, 0x49, 0xeb, 0x9c, 0x3c,
	0x8e, 0x03, 0x97, 0x3e, 0x4e, 0xdc, 0xff, 0xff, 0x04, 0x00, 0x00, 0x00,
	0x00, 0x01, 0x00, 0x00, 0x8d, 0x63, 0x36, 0xbf, 0xbd, 0x09, 0xc9, 0x3e,
	0x2e, 0x17, 0xf5, 0xbe, 0x26, 0x84, 0x32, 0x3e, 0xd4, 0x44, 0xc0, 0xbe,
	0x0a, 0xcc, 0xda, 0xbd, 0x02, 0xbc, 0x0e, 0xbf, 0xb4, 0x46, 0xcf, 0xbd,
	0xb6, 0x10, 0x6c, 0x3f, 0x3b, 0x74, 0x1a, 0x3d, 0xd9, 0x0d, 0xa1, 0xbf,
	0x33, 0xaa, 0xb1, 0xbd, 0x05, 0x35, 0x08, 0xbe, 0x30, 0xbc, 0x4f, 0x3e,
	0x30, 0x14, 0x62, 0xbe, 0x09, 0x5c, 0x7d, 0xbe, 0x90, 0xe3, 0x5b, 0x3e,
	0xef, 0x1b, 0x53, 0xbe, 0x0b, 0x85, 0x46, 0xbf, 0x3b, 0x0d, 0x03, 0xbe,
	0x8b, 0xa6, 0xa0, 0xbe, 0xfe, 0xd4, 0xa0, 0xbd, 0xc9, 0x9d, 0xf3, 0xbd,
	0x05, 0xb8, 0x9a, 0x3e, 0x80, 0x37, 0xc6, 0xbe, 0x9c, 0x7a, 0xd5, 0xbd,
	0x7c, 0xef, 0xe4, 0xbe, 0x2f, 0xc9, 0xea, 0xbe, 0x66, 0xc2, 0x1e, 0xbf,
	0x78, 0x3d, 0x67, 0x3e, 0xba, 0x54, 0x9b, 0xbc, 0x87, 0xe2, 0xad, 0xbd,
	0x65, 0x7a, 0x8d, 0xbf, 0xc1, 0xa4, 0x2e, 0x3e, 0xf2, 0x98, 0x63, 0x3f,
	0x48, 0x20, 0xb4, 0xbe, 0x6f, 0xd1, 0xe9, 0xbe, 0x45, 0x5a, 0xe9, 0xbd,
	0x22, 0x42, 0x25, 0x3d, 0xdc, 0x85, 0xa4, 0xbd, 0xc5, 0x4a, 0x5c, 0x3f,
	0xb3, 0x3a, 0xe9, 0x3e, 0x9b, 0xba, 0xca, 0xbe, 0xf3, 0xd0, 0x52, 0xbd,
	0x8a, 0x43, 0xac, 0xbf, 0xbe, 0x92, 0xcc, 0x3e, 0xd5, 0xb9, 0x01, 0xbe,
	0x73, 0x37, 0x00, 0x3f, 0xd8, 0xd2, 0xb9, 0xbe, 0x77, 0x34, 0x41, 0xbe,
	0xc5, 0x82, 0x76, 0xb9, 0x61, 0xa2, 0xbc, 0x3d, 0xc4, 0x20, 0x34, 0x3d,
	0x80, 0x49, 0x9a, 0xbe, 0xeb, 0x40, 0x16, 0xbe, 0x4d, 0xb4, 0x6f, 0xbe,
	0xa5, 0xb6, 0x94, 0xbe, 0xc2, 0x72, 0xb6, 0xbf, 0x04, 0x23, 0x0d, 0xbe,
	0x31, 0x1f, 0x83, 0x3c, 0x27, 0x87, 0xa1, 0x3b, 0x7c, 0x93, 0xa5, 0x3e,
	0x39, 0x3e, 0x1d, 0x3e, 0x88, 0xf4, 0x56, 0x3d, 0x5a, 0xdd, 0xff, 0xff,
	0x04, 0x00, 0x00, 0x00, 0x80, 0x00, 0x00, 0x00, 0x5e, 0x88, 0xc2, 0x3d,
	0x87, 0x06, 0x38, 0xc0, 0x1f, 0x62, 0x15, 0x3e, 0x70, 0x46, 0x43, 0xb8,
	0x2e, 0xb9, 0x9b, 0xbd, 0x31, 0x74, 0xae, 0xbe, 0x17, 0xc8, 0x01, 0x3e,
	0x9c, 0x2b, 0x92, 0xbd, 0x8e, 0x7f, 0xab, 0x3c, 0x0f, 0x21, 0xb5, 0x3e,
	0xf4, 0xf6, 0xde, 0x3b, 0x2b, 0xae, 0x04, 0x3f, 0x64, 0x24, 0x10, 0x3f,
	0x0d, 0x57, 0x87, 0xbd, 0x66, 0x1a, 0xce, 0x3e, 0xac, 0xa8, 0xbe, 0x3d,
	0x53, 0x12, 0x1b, 0x3f, 0x5c, 0x15, 0xa4, 0x3e, 0xde, 0xaf, 0xaf, 0xbd,
	0x30, 0x53, 0xda, 0x3e, 0x6e, 0xe0, 0x32, 0x3f, 0x41, 0xdf, 0xbd, 0xbc,
	0xa9, 0x1e, 0x0c, 0xbe, 0x0b, 0xf2, 0x0a, 0x3c, 0x49, 0xc8, 0x64, 0xbe,
	0xfe, 0x1f, 0x1c, 0x3d, 0x99, 0xcb, 0x00, 0x3d, 0xc6, 0x37, 0x05, 0x3f,
	0xb8, 0xc9, 0x51, 0xbd, 0x38, 0xff, 0x91, 0x3e, 0xb9, 0xb9, 0xc1, 0x3c,
	0xf5, 0xd2, 0xf7, 0x3e, 0xe6, 0xdd, 0xff, 0xff, 0x04, 0x00, 0x00, 0x00,
	0x00, 0x20, 0x00, 0x00, 0xc6, 0x16, 0x06, 0xbf, 0x4d, 0x9f, 0x7c, 0xbf,
	0x8d, 0xfa, 0xa7, 0x3e, 0x09, 0x91, 0xf6, 0xbd, 0xd9, 0xc3, 0x5a, 0x3e,
	0x32, 0xda, 0x3b, 0xbf, 0xb2, 0xd9, 0x8c, 0xbf, 0xd2, 0x04, 0x7e, 0xbf,
	0xe9, 0x80, 0xa0, 0xbc, 0x66, 0xad, 0xbc, 0xbe, 0xe9, 0xb8, 0x23, 0x3e,
	0x7e, 0x57, 0xde, 0x3e, 0xf1, 0x7d, 0x35, 0x3e, 0x5a, 0x9c, 0xb3, 0x3b,
	0x03, 0x08, 0x1f, 0xbe, 0xda, 0xb5, 0x7e, 0x3c, 0xbc, 0x50, 0x67, 0x3e,
	0xbe, 0xa5, 0x1e, 0xbf, 0xd7, 0x1e, 0x0b, 0x3e, 0x21, 0x93, 0x85, 0x3c,
	0xd1, 0x40, 0x51, 0xbf, 0xd6, 0x5e, 0x9f, 0xbf, 0x1d, 0x57, 0xda, 0x3e,
	0xfe, 0x95, 0x17, 0x3f, 0x90, 0x6e, 0x22, 0x3f, 0xf8, 0xfa, 0x83, 0xbf,
	0x03, 0xbd, 0xd6, 0x3e, 0x39, 0xfe, 0x9e, 0xbe, 0x49, 0x67, 0xaf, 0xbe,
	0x27, 0x03, 0x68, 0x3e, 0xff, 0xd3, 0x84, 0x3e, 0xed, 0xfd, 0x09, 0x3c,
	0x59, 0x07, 0xb8, 0x3e, 0xe8, 0x6e, 0x09, 0x3b, 0x3a, 0x30, 0xcd, 0x3d,
	0x22, 0x38, 0xd7, 0x3e, 0xff, 0x48, 0x8e, 0xbe, 0xcf, 0x2a, 0x9c, 0x3e,
	0xae, 0xdd, 0xb1, 0x3b, 0xc2, 0xbf, 0xc5, 0xbd, 0xc4, 0x96, 0x47, 0xbf,
	0x91, 0x0a, 0x69, 0xbe, 0xdb, 0xeb, 0xc8, 0x3e, 0xbf, 0x4e, 0x38, 0xbe,
	0xff, 0xe1, 0x4c, 0x3d, 0x6f, 0x4b, 0x82, 0x3e, 0xc2, 0xc3, 0x8b, 0x3d,
	0xb5, 0x13, 0x53, 0x3e, 0xe3, 0xf9, 0x70, 0x3e, 0x01, 0x51, 0x0e, 0xbe,
	0xb8, 0xbc, 0x16, 0x3d, 0xa2, 0x11, 0x97, 0xbb, 0x99, 0x83, 0x93, 0x3e,
	0x6b, 0xad, 0xb2, 0x3d, 0x01, 0x66, 0x21, 0x3f, 0xfb, 0x59, 0x25, 0xbf,
	0xb3, 0xad, 0xb3, 0xbe, 0xb6, 0x30, 0xa4, 0xbd, 0x42, 0x96, 0x66, 0x3e,
	0x18, 0xc8, 0x2c, 0xbe, 0xe9, 0xce, 0xd6, 0xbd, 0x3e, 0xc7, 0x26, 0xbd,
	0xb8, 0x14, 0x5f, 0x3e, 0x51, 0x76, 0x3a, 0x3e, 0x07, 0xc8, 0xe8, 0x3e,
	0x8d, 0xb5, 0x79, 0xbe, 0x04, 0x0f, 0x24, 0xbc, 0xf8, 0x82, 0xd3, 0x3d,
	0x31, 0x50, 0x61, 0x3d, 0x65, 0x32, 0x7c, 0x3d, 0x3a, 0xf7, 0x04, 0x3e,
	0x08, 0x30, 0xfd, 0x3d, 0x13, 0x33, 0x84, 0xbf, 0x0e, 0x81, 0xf2, 0x3d,
	0x3b, 0x1c, 0xc2, 0x3e, 0x4e, 0xc3, 0xaa, 0x3d, 0x7f, 0x85, 0x4f, 0x3d,
	0xe0, 0x55, 0x18, 0xbd, 0xe3, 0xe5, 0xe4, 0xbd, 0xfa, 0xee, 0x03, 0x3d,
	0xb9, 0x50, 0x5c, 0x3e, 0x03, 0x1c, 0x25, 0x3e, 0xd2, 0x9f, 0xed, 0x3d,
	0xd2, 0x95, 0x67, 0x3c, 0x08, 0xfe, 0x44, 0x3e, 0xae, 0x3a, 0x1e, 0xbd,
	0x6a, 0x94, 0x05, 0x3e, 0x30, 0x32, 0x78, 0x3e, 0x70, 0x3c, 0xb0, 0x3e,
	0x96, 0xb4, 0xb0, 0x3e, 0x6f, 0x58, 0x86, 0x3e, 0xa0, 0xda, 0xc9, 0x3b,
	0x9d, 0xb1, 0xca, 0x3c, 0xdd, 0x94, 0x3b, 0xbf, 0xe3, 0xda, 0x89, 0x3e,
	0x92, 0x28, 0x9b, 0x3d, 0x1f, 0x03, 0x64, 0x3e, 0x76, 0x95, 0x54, 0x3e,
	0x08, 0xc6, 0xcf, 0xbe, 0xb5, 0x41, 0xb8, 0x3e, 0x60, 0x32, 0x3b, 0xbb,
	0x19, 0xca, 0x09, 0xbc, 0x36, 0x16, 0xa9, 0x3d, 0xbc, 0xff, 0x61, 0x3c,
	0xa7, 0x4f, 0xae, 0xbe, 0xb3, 0xdf, 0xeb, 0xbd, 0x11, 0x31, 0xdf, 0x3d,
	0x40, 0xe9, 0xc3, 0x3b, 0x7d, 0x72, 0x8e, 0x3e, 0xe7, 0x48, 0x76, 0xbb,
	0x6f, 0x50, 0xc7, 0xbd, 0x32, 0x2a, 0x5d, 0xbe, 0xd8, 0x8c, 0x1e, 0xbe,
	0x29, 0x4e, 0xf3, 0xbc, 0x4e, 0xa7, 0x09, 0xbe, 0xfc, 0xb5, 0xa1, 0xbe,
	0x96, 0x5f, 0x05, 0x3b, 0xad, 0x6c, 0xdf, 0xbc, 0x03, 0x5f, 0xad, 0xbd,
	0xca, 0xb9, 0x89, 0x3d, 0xb4, 0xb3, 0x02, 0x3e, 0x94, 0x88, 0xaf, 0x3c,
	0xe8, 0x64, 0x66, 0xbe, 0x1b, 0x49, 0x05, 0x3e, 0xbd, 0x3e, 0x5f, 0x3e,
	0x50, 0x8b, 0x46, 0x3e, 0xae, 0x15, 0xa8, 0xbe, 0x50, 0x32, 0x62, 0x3e,
	0xe1, 0xd1, 0x6f, 0xbf, 0x04, 0x42, 0x1a, 0xbf, 0xb0, 0x2e, 0x41, 0xbb,
	0xb2, 0x4d, 0x9a, 0xbe, 0x23, 0xe4, 0x20, 0xbe, 0x1e, 0xb7, 0x00, 0xbe,
	0x85, 0xdf, 0x4f, 0xbe, 0x69, 0x24, 0xc3, 0xbe, 0xe6, 0x4a, 0xe2, 0x3d,
	0x93, 0x77, 0xc8, 0xbe, 0xd3, 0xa4, 0xc4, 0xbf, 0x5d, 0x57, 0x55, 0xbe,
	0x3f, 0x9a, 0x90, 0x3d, 0xb4, 0xdd, 0x62, 0xbf, 0x72, 0x0e, 0x15, 0xbf,
	0x8d, 0x60, 0x49, 0x3e, 0x5f, 0x26, 0x1a, 0x3f, 0xe7, 0x3e, 0xff, 0x3e,
	0x22, 0x17, 0x68, 0x3e, 0x35, 0xaf, 0x5f, 0xbe, 0x9d, 0x07, 0x5d, 0xbf,
	0x87, 0x98, 0x38, 0xbe, 0xdb, 0x70, 0xa1, 0xbd, 0x57, 0x2f, 0xf3, 0xbd,
	0xc7, 0x6c, 0x00, 0xbf, 0x2f, 0x86, 0xfd, 0xbe, 0x33, 0x11, 0xd9, 0x3c,
	0xe2, 0x57, 0xba, 0xbe, 0xac, 0xa9, 0x9c, 0x3e, 0x79, 0x6b, 0xb0, 0x3e,
	0xe9, 0x1a, 0xe9, 0xbd, 0x86, 0x1e, 0x90, 0xbe, 0x83, 0x12, 0xea, 0xbd,
	0x58, 0x7a, 0x07, 0xbf, 0x05, 0xd4, 0x36, 0x3e, 0x5e, 0x35, 0x9c, 0xbe,
	0x14, 0xca, 0x7d, 0xbb, 0x0b, 0x54, 0x93, 0x3e, 0x25, 0x80, 0x1d, 0xbe,
	0x56, 0x7d, 0xad, 0x3e, 0xcd, 0x0a, 0x09, 0x3f, 0x4c, 0xac, 0xc3, 0x3e,
	0x74, 0x70, 0xcf, 0x3e, 0x43, 0x45, 0xd0, 0xbc, 0x35, 0xfa, 0xe3, 0xbe,
	0x56, 0x48, 0x8f, 0x3e, 0x62, 0xee, 0xa3, 0x3d, 0x84, 0x32, 0xb5, 0xbe,
	0xa8, 0xdc, 0xd5, 0xbe, 0x4b, 0xa7, 0xfd, 0x3e, 0xf7, 0x03, 0x54, 0x3e,
	0x50, 0x3f, 0x74, 0x3e, 0xd3, 0x2e, 0x13, 0xbf, 0x66, 0x6c, 0x70, 0xbf,
	0xca, 0x66, 0x21, 0xbf, 0x01, 0x5a, 0x93, 0x3e, 0x07, 0xae, 0x99, 0xbe,
	0xef, 0x37, 0x80, 0x3e, 0x50, 0x18, 0x36, 0xbf, 0xe7, 0xbc, 0x14, 0xbf,
	0x7c, 0x3c, 0xdd, 0xbe, 0x1f, 0x15, 0xd1, 0x3e, 0x46, 0xc1, 0xd0, 0xbe,
	0xcf, 0x24, 0x2f, 0xbf, 0x05, 0xa3, 0x22, 0xbf, 0x03, 0xf0, 0xa9, 0x3d,
	0xe2, 0x52, 0x05, 0xbf, 0xcb, 0x70, 0x3f, 0x3e, 0x3d, 0x37, 0x72, 0xbe,
	0xe9, 0xb9, 0xc6, 0xbe, 0x30, 0xfd, 0x4d, 0xbd, 0x83, 0x68, 0xa9, 0x3e,
	0xda, 0xb1, 0x54, 0xbe, 0x8a, 0xa5, 0xd0, 0xbe, 0xa6, 0x80, 0xff, 0xbd,
	0x22, 0x2e, 0x62, 0xbe, 0x9a, 0xd0, 0x58, 0x3c, 0xbc, 0x4c, 0xdd, 0x3c,
	0x0c, 0xa1, 0x32, 0x3d, 0xdb, 0x2c, 0x14, 0xbe, 0xf5, 0x8c, 0x83, 0x3d,
	0xe2, 0xea, 0x27, 0xbf, 0x8d, 0x8c, 0x0c, 0xbf, 0x3d, 0x1b, 0x84, 0x3d,
	0x05, 0x17, 0x3b, 0xbf, 0x17, 0x9a, 0x47, 0xbf, 0x2a, 0x65, 0x17, 0xbe,
	0x06, 0x72, 0x49, 0x3e, 0x6b, 0x33, 0x4b, 0x3e, 0x28, 0x7c, 0x13, 0xbf,
	0x37, 0x9a, 0x57, 0x3e, 0x4b, 0x7f, 0x63, 0xbd, 0x33, 0x4d, 0x25, 0xbe,
	0xd8, 0x5a, 0xcc, 0xbe, 0x4c, 0x4b, 0xca, 0x3e, 0xb4, 0xd7, 0xd4, 0xbd,
	0x71, 0xca, 0x14, 0xbd, 0xc9, 0xce, 0x90, 0x3e, 0x17, 0xb0, 0x80, 0x3e,
	0xe3, 0xc2, 0xb7, 0x3e, 0x3d, 0x56, 0xfd, 0x3d, 0xe1, 0xd5, 0x70, 0x3d,
	0xc4, 0x90, 0x35, 0xbf, 0xa2, 0x36, 0x91, 0x3e, 0x9d, 0xad, 0x1f, 0x3f,
	0xee, 0x95, 0xee, 0x3d, 0xed, 0x39, 0x1d, 0xbf, 0x88, 0x4a, 0x6c, 0xbf,
	0xac, 0x7b, 0x22, 0xbc, 0x8b, 0x0c, 0xc9, 0x3d, 0xb2, 0x1a, 0x8f, 0xbf,
	0xbe, 0xe0, 0xcd, 0x3b, 0xfc, 0x16, 0xa7, 0xbe, 0x3e, 0x3e, 0xb8, 0xbd,
	0x65, 0x18, 0x21, 0xbf, 0xe0, 0x8f, 0xea, 0xbe, 0x43, 0x76, 0x83, 0xbe,
	0x48, 0xbd, 0x87, 0x3e, 0x13, 0x81, 0xb5, 0x3c, 0xd8, 0x77, 0x08, 0x3f,
	0xb0, 0x89, 0x46, 0xbf, 0xd0, 0xc0, 0xa7, 0x3e, 0x09, 0x69, 0x65, 0xbf,
	0xe7, 0x82, 0x82, 0xbf, 0x9d, 0xef, 0x2e, 0x3f, 0x0d, 0x14, 0xaa, 0x3e,
	0x2e, 0x1b, 0x99, 0x3c, 0x61, 0x5d, 0x1a, 0x3f, 0x63, 0xd7, 0x1e, 0x3d,
	0x9c, 0x2a, 0x4d, 0xbe, 0x20, 0x00, 0x0a, 0xbe, 0xb3, 0x79, 0x74, 0xbd,
	0x50, 0xde, 0xc3, 0x3d, 0xc4, 0xea, 0xa9, 0xbd, 0x26, 0x13, 0x20, 0xbe,
	0x72, 0x2f, 0x8b, 0xbc, 0x47, 0x6f, 0xed, 0xbd, 0x34, 0x84, 0x27, 0xbe,
	0xe1, 0x31, 0xf7, 0xbd, 0xb3, 0xb7, 0x90, 0xbd, 0x2c, 0x4d, 0x4a, 0xbe,
	0xcf, 0x3e, 0xd1, 0xbd, 0x18, 0xae, 0x06, 0x3d, 0x9f, 0x04, 0x89, 0xbd,
	0xd5, 0xd1, 0xb0, 0x3c, 0xea, 0x6b, 0x83, 0xbd, 0xef, 0x84, 0x06, 0xbe,
	0x35, 0xb2, 0x4a, 0x3d, 0x4b, 0x32, 0x20, 0xbe, 0x43, 0x50, 0x3b, 0xbe,
	0xc7, 0x9f, 0x3c, 0x3e, 0xb2, 0x6f, 0x80, 0xbd, 0x61, 0x25, 0x49, 0xbe,
	0x3b, 0x01, 0xd7, 0xbd, 0xd5, 0x8c, 0x08, 0xbe, 0xf7, 0xa4, 0x2d, 0xbe,
	0x70, 0x3c, 0x44, 0xbe, 0x06, 0x40, 0x31, 0xbe, 0xd7, 0x8c, 0x64, 0xbe,
	0x50, 0xd4, 0x95, 0xbd, 0x0e, 0x66, 0x7e, 0x3d, 0x01, 0x6e, 0xc5, 0xbd,
	0xcc, 0x54, 0x39, 0x3d, 0x31, 0xc1, 0x3f, 0xbe, 0x71, 0x94, 0x85, 0xbd,
	0x8a, 0x37, 0xfb, 0x3c, 0xa9, 0x72, 0xbd, 0xbc, 0x9b, 0x2f, 0x37, 0xbe,
	0x85, 0xfb, 0x1a, 0x3e, 0x18, 0x58, 0xbb, 0xbd, 0x99, 0xde, 0xad, 0xbd,
	0x8e, 0x6e, 0x84, 0x3b, 0xb2, 0xfb, 0x91, 0xbd, 0x4e, 0xad, 0x8e, 0xbe,
	0x6a, 0xe3, 0xef, 0xbc, 0x91, 0x2f, 0x27, 0x3c, 0x7c, 0xa2, 0x8b, 0xbd,
	0x6f, 0xf8, 0x32, 0xbe, 0x28, 0xf7, 0x57, 0xbe, 0x54, 0x15, 0x46, 0xbd,
	0x91, 0xd6, 0x45, 0x3d, 0xc8, 0x5e, 0x17, 0xbe, 0xe6, 0xdd, 0x0b, 0xbe,
	0x23, 0x26, 0xed, 0xbd, 0x17, 0x6f, 0x42, 0xbe, 0xcd, 0xf9, 0x95, 0xbc,
	0x7f, 0x4e, 0x32, 0x3d, 0x2f, 0x59, 0x27, 0xbd, 0x09, 0x05, 0x69, 0xbc,
	0x48, 0x10, 0xb6, 0xbe, 0xe9, 0xf3, 0x1c, 0xbc, 0x5a, 0x98, 0x56, 0x3c,
	0xb5, 0x92, 0x25, 0xbe, 0xa5, 0xe7, 0x95, 0xbe, 0x73, 0xf2, 0x9c, 0xbe,
	0xec, 0xcc, 0xc5, 0xbe, 0x19, 0x83, 0x89, 0xbe, 0x04, 0xaa, 0x97, 0xbe,
	0x8b, 0xad, 0xa5, 0xbd, 0x15, 0xd3, 0xbc, 0xbe, 0xd3, 0xde, 0x5d, 0xbe,
	0x2d, 0x5c, 0xeb, 0xbd, 0x99, 0x5e, 0x31, 0xbd, 0xfe, 0xa5, 0x95, 0xbe,
	0xb7, 0x48, 0x3b, 0xbe, 0xb1, 0xb7, 0xae, 0xbe, 0x61, 0x8c, 0x13, 0xbf,
	0x96, 0x6d, 0x95, 0x3c, 0x97, 0x6e, 0xa2, 0xbe, 0xad, 0x87, 0xef, 0xbd,
	0xe8, 0x5e, 0x25, 0xbe, 0x81, 0x8d, 0x37, 0x3d, 0x41, 0x54, 0x36, 0xbe,
	0xa0, 0x34, 0x4c, 0xbe, 0xb2, 0x88, 0xbe, 0xbe, 0x5d, 0x5b, 0xb2, 0xbd,
	0xad, 0xab, 0xcb, 0xbe, 0x0e, 0xb8, 0x8e, 0xbc, 0x26, 0x2c, 0x5e, 0xbe,
	0xea, 0x43, 0x4a, 0xbe, 0x5e, 0x93, 0xae, 0xbc, 0x71, 0xc6, 0x2e, 0xbe,
	0xf3, 0x29, 0xe9, 0xbd, 0x04, 0x23, 0xa5, 0xbe, 0x10, 0x50, 0x47, 0xbe,
	0xb1, 0xc3, 0xa3, 0xbd, 0x01, 0x55, 0x07, 0xbf, 0x11, 0x2a, 0x9f, 0x3d,
	0x62, 0x37, 0xcd, 0xbd, 0x98, 0xb9, 0xae, 0xbe, 0xe3, 0xe2, 0x86, 0xbe,
	0x51, 0xde, 0xab, 0xbe, 0x24, 0x5a, 0xfd, 0xbe, 0x01, 0x60, 0xb5, 0xbe,
	0x6c, 0xa4, 0x86, 0xbe, 0x56, 0x69, 0xab, 0xbe, 0x99, 0xbe, 0x3e, 0xbe,
	0x8a, 0xab, 0xde, 0xbe, 0x81, 0x2a, 0x25, 0xbe, 0xa3, 0xf3, 0xf7, 0xbc,
	0xb3, 0x87, 0x7d, 0xbe, 0x3d, 0x25, 0x78, 0xbe, 0xd7, 0x66, 0xd3, 0xbe,
	0x25, 0x61, 0xe8, 0xbd, 0x6d, 0x03, 0x61, 0xbe, 0xaf, 0x3f, 0x20, 0x39,
	0xde, 0x62, 0xb9, 0xbe, 0xed, 0x79, 0x9e, 0xbe, 0xc3, 0x41, 0xd2, 0xbe,
	0xed, 0x0e, 0xc9, 0xbe, 0x36, 0x5f, 0x90, 0xbe, 0xe6, 0xc7, 0x99, 0xbe,
	0x77, 0x45, 0x64, 0xbe, 0x90, 0x42, 0x83, 0xbe, 0x0f, 0x36, 0x1a, 0x3e,
	0x7a, 0x59, 0x09, 0x3c, 0xd5, 0xdd, 0xa8, 0xbd, 0xfe, 0x32, 0x03, 0x3b,
	0xca, 0x94, 0x6b, 0xbe, 0xbc, 0x38, 0x11, 0x3a, 0x6b, 0x9d, 0xfb, 0xbd,
	0xf0, 0xad, 0xae, 0x3c, 0xf3, 0xf3, 0x5b, 0xbe, 0x35, 0xef, 0x90, 0x3d,
	0xb4, 0xd0, 0x03, 0xbe, 0x64, 0x67, 0xb1, 0x3c, 0xa4, 0xb7, 0xe6, 0xbd,
	0x26, 0x66, 0x8b, 0xbe, 0x55, 0xb6, 0x0e, 0xbf, 0x77, 0x0f, 0x8d, 0x3d,
	0xc1, 0x84, 0xa6, 0xbd, 0xc4, 0xcf, 0x2d, 0xbe, 0x3c, 0xb9, 0xe4, 0xbd,
	0xbf, 0x27, 0x17, 0xbe, 0x07, 0x52, 0x52, 0x3d, 0x5f, 0x26, 0x1a, 0xbf,
	0x25, 0xba, 0x23, 0xbe, 0xe4, 0x0e, 0xfd, 0xbd, 0x73, 0xbc, 0x58, 0xbe,
	0xbb, 0xff, 0xae, 0x3c, 0x27, 0x1e, 0x23, 0x3b, 0xd6, 0xfb, 0x54, 0xbe,
	0x8c, 0x16, 0xc4, 0xbd, 0x97, 0x8d, 0xf2, 0xbe, 0x7a, 0x42, 0x1f, 0xbf,
	0x19, 0xf3, 0x41, 0xbe, 0x69, 0xc0, 0x85, 0x3d, 0xac, 0x6a, 0xf5, 0xbb,
	0xad, 0x5d, 0x8d, 0xbd, 0x81, 0x19, 0x67, 0x3d, 0xdb, 0xf0, 0xf5, 0xbd,
	0x4c, 0x3d, 0x59, 0x3d, 0xcb, 0x20, 0x35, 0xbf, 0xe9, 0x67, 0x7d, 0xbe,
	0x3c, 0x8b, 0xf1, 0x3c, 0xf2, 0x5a, 0x59, 0xbe, 0x38, 0xe7, 0x89, 0x3d,
	0x44, 0xf2, 0xc8, 0xbe, 0x3a, 0x04, 0xb3, 0xbe, 0x43, 0x61, 0xcf, 0xbe,
	0x92, 0xd9, 0x99, 0xbd, 0x32, 0x8f, 0x0b, 0xbe, 0x5d, 0x28, 0xb3, 0x3d,
	0x05, 0xdb, 0x4d, 0xbe, 0x9d, 0x87, 0xb1, 0xbd, 0x84, 0x15, 0xad, 0xbe,
	0xcd, 0xb1, 0xe4, 0x3d, 0xdf, 0xd4, 0xde, 0xbe, 0x0b, 0x21, 0x20, 0xbe,
	0xdb, 0x1e, 0x40, 0xbe, 0x80, 0x30, 0x7a, 0x3c, 0xc5, 0x6f, 0xf4, 0xbc,
	0xf6, 0x7e, 0xc6, 0xbd, 0x76, 0x8c, 0x07, 0xbc, 0x00, 0x4b, 0x79, 0x3d,
	0x79, 0xf7, 0x47, 0xbc, 0xb5, 0x45, 0xeb, 0xbd, 0xe9, 0x15, 0xba, 0xbd,
	0x7a, 0xa7, 0x1b, 0xbe, 0xc5, 0x87, 0x00, 0x3e, 0xa0, 0x0a, 0x49, 0x3d,
	0xf2, 0x2a, 0x07, 0xbe, 0x25, 0xd7, 0x1a, 0x3d, 0xfd, 0x47, 0x4b, 0xbe,
	0xf0, 0x20, 0x80, 0xbd, 0x43, 0x32, 0xbf, 0xbd, 0xd4, 0x61, 0x65, 0xbe,
	0xd6, 0x7f, 0xd5, 0xbd, 0xa3, 0x93, 0x74, 0xbe, 0x4e, 0x8f, 0x3e, 0xbe,
	0x2b, 0xdd, 0xba, 0xbd, 0xcc, 0x5e, 0xa3, 0xbc, 0x5e, 0x06, 0x8f, 0xbc,
	0xec, 0xe0, 0xd9, 0x3d, 0x4e, 0x60, 0xa5, 0xbd, 0x47, 0x23, 0xf3, 0xbd,
	0x47, 0x7c, 0x23, 0xbe, 0xc8, 0x0b, 0x3b, 0xbc, 0xe9, 0x25, 0x08, 0xbe,
	0x61, 0x84, 0x38, 0xbe, 0x93, 0xdc, 0x2b, 0xbd, 0x24, 0x25, 0x97, 0xbd,
	0xe0, 0x09, 0x35, 0xbd, 0xc5, 0xb7, 0x20, 0xbe, 0x2d, 0x12, 0xf1, 0xbb,
	0x78, 0x3f, 0xbb, 0x3c, 0xa6, 0x53, 0x82, 0xbb, 0xa7, 0x80, 0x10, 0xbe,
	0x2a, 0xbc, 0x80, 0xbd, 0x39, 0x90, 0x8f, 0xbc, 0xac, 0xee, 0x25, 0xbd,
	0x91, 0x94, 0xe8, 0xbc, 0x05, 0x6d, 0x3e, 0xbc, 0x93, 0xd8, 0x29, 0x3e,
	0xf3, 0x20, 0x48, 0x3b, 0x8d, 0x33, 0xf6, 0xbb, 0x1c, 0xaa, 0x0c, 0x3b,
	0x53, 0xde, 0xad, 0xbd, 0x56, 0x70, 0x2e, 0xbe, 0x18, 0xdd, 0x22, 0xbe,
	0x41, 0x1b, 0x93, 0xbd, 0xe0, 0x50, 0x09, 0xbe, 0xa5, 0x55, 0x05, 0xbe,
	0x12, 0x7a, 0x51, 0xbd, 0xc4, 0xfd, 0xd3, 0x3b, 0x7e, 0xa7, 0x32, 0xbe,
	0x53, 0x8b, 0x90, 0xbd, 0x5c, 0xc8, 0xc5, 0xbd, 0x76, 0xf0, 0x26, 0xbe,
	0xf0, 0xfe, 0xb8, 0xbd, 0xab, 0x2e, 0xf0, 0xbd, 0x8b, 0x62, 0x70, 0xbe,
	0xb0, 0x5f, 0x86, 0xbd, 0x93, 0x57, 0x03, 0xbe, 0xc2, 0xea, 0x6d, 0xbd,
	0x0e, 0x72, 0x15, 0xbd, 0x57, 0x11, 0x90, 0x3d, 0xa9, 0xfa, 0x95, 0xbd,
	0x9d, 0x89, 0x28, 0xbd, 0x87, 0xa8, 0xed, 0x3c, 0x18, 0x52, 0x8f, 0xbc,
	0xf1, 0xc3, 0x8c, 0xbe, 0x21, 0x38, 0x2b, 0xbe, 0x3a, 0x8e, 0xcf, 0xbd,
	0x0f, 0x93, 0x60, 0x3e, 0x29, 0xe3, 0x3f, 0xbf, 0x65, 0x79, 0x68, 0xbd,
	0x58, 0xfc, 0xe5, 0x3d, 0x29, 0xf4, 0x83, 0x3e, 0x55, 0xe4, 0x32, 0x3f,
	0x2e, 0xfb, 0xb5, 0x3d, 0x16, 0xe6, 0x87, 0x3e, 0x8b, 0x68, 0x9f, 0xbc,
	0xf4, 0x4d, 0x61, 0xbd, 0x7b, 0x7d, 0x2f, 0xbd, 0xe7, 0x50, 0x2f, 0x3e,
	0x76, 0x6c, 0xc2, 0x3e, 0x6a, 0xc7, 0xe0, 0x3d, 0x9c, 0x71, 0x11, 0xbe,
	0xb7, 0x37, 0xb3, 0xbf, 0x7a, 0x55, 0xc6, 0x3e, 0x7e, 0x45, 0x47, 0x3c,
	0x07, 0x98, 0x84, 0xbe, 0x90, 0xf3, 0xd7, 0xbd, 0x4a, 0x79, 0xa4, 0x3e,
	0xba, 0xc7, 0x39, 0x3e, 0xe2, 0xfc, 0x16, 0xbf, 0x45, 0xa5, 0x0e, 0xbd,
	0xea, 0xa8, 0x3a, 0x3e, 0x06, 0x7e, 0xd0, 0x3c, 0xfe, 0x7c, 0x7b, 0x3e,
	0x8d, 0x3d, 0xc8, 0xbe, 0xae, 0xe0, 0xf6, 0xbd, 0x11, 0x4e, 0x82, 0xbd,
	0x0d, 0x63, 0x8e, 0xbc, 0x4f, 0xdf, 0xcd, 0xbe, 0x30, 0x0b, 0x9f, 0x3d,
	0x81, 0x0a, 0x2f, 0xbf, 0xe6, 0x19, 0x57, 0x3d, 0x40, 0x4e, 0x9d, 0xbe,
	0xf5, 0x13, 0xaf, 0xbe, 0x43, 0xe0, 0x13, 0x3f, 0xaf, 0x88, 0x97, 0x3e,
	0xb4, 0xb9, 0x7b, 0xbe, 0x93, 0x82, 0x60, 0xbf, 0x70, 0xd8, 0x34, 0xbe,
	0xc6, 0x5a, 0x21, 0xbf, 0x40, 0x9c, 0xb5, 0x3d, 0x38, 0x55, 0x15, 0x3e,
	0x46, 0x2f, 0xb3, 0xbe, 0xd9, 0xd1, 0xc4, 0xbe, 0x58, 0x8c, 0x8f, 0xbe,
	0x97, 0x2f, 0x61, 0xbe, 0xb7, 0x55, 0x5b, 0xbf, 0xee, 0x73, 0x45, 0x3e,
	0x96, 0x41, 0x08, 0xbf, 0x9d, 0xf4, 0x8b, 0x3d, 0x87, 0x9c, 0xba, 0x3e,
	0x20, 0x4b, 0xb2, 0xbd, 0xdf, 0x53, 0x30, 0xbf, 0x72, 0xf1, 0xe3, 0xbd,
	0xfd, 0x13, 0x69, 0xbf, 0x99, 0x55, 0x47, 0xbd, 0x99, 0x64, 0xb3, 0x3e,
	0xa8, 0x40, 0xbb, 0xbe, 0x48, 0x83, 0x64, 0x3f, 0x52, 0x2a, 0x71, 0xbe,
	0x28, 0x56, 0xb4, 0x3e, 0x5b, 0x83, 0x4d, 0xbf, 0x83, 0xa8, 0x29, 0xbe,
	0xeb, 0x84, 0x6e, 0xbe, 0x8a, 0x41, 0xe9, 0xbd, 0x3a, 0xb1, 0x84, 0xbf,
	0x2a, 0x8b, 0x33, 0xbe, 0x7f, 0xb8, 0xd4, 0xbe, 0x6b, 0x65, 0x9e, 0x3e,
	0x90, 0x9a, 0x14, 0x3e, 0x8c, 0x4c, 0xc6, 0xbe, 0x46, 0xbd, 0xbf, 0xbe,
	0xc7, 0x51, 0x28, 0x3e, 0x78, 0xa3, 0x4c, 0x3e, 0x91, 0x69, 0x8f, 0x3e,
	0xe2, 0x49, 0x9d, 0xbe, 0x98, 0xdb, 0x09, 0x3f, 0x45, 0x8f, 0x4e, 0x3d,
	0x46, 0xa2, 0xf6, 0x3d, 0x6b, 0x82, 0x94, 0xbe, 0x94, 0x3f, 0xc2, 0xbd,
	0xac, 0xbd, 0x89, 0xbc, 0xb0, 0xa5, 0x65, 0x3e, 0xd7, 0x43, 0xfe, 0x3e,
	0x1c, 0x2b, 0xc1, 0xbe, 0xdb, 0xfd, 0x0d, 0xbf, 0x29, 0x57, 0x58, 0xbe,
	0x3b, 0xe5, 0x4f, 0xbd, 0x1b, 0xe7, 0xef, 0x3c, 0xba, 0xa4, 0xff, 0xbd,
	0x63, 0x54, 0x52, 0x3e, 0xc0, 0xa7, 0xaf, 0xbe, 0xb9, 0x97, 0x1a, 0x3e,
	0x41, 0xf9, 0x85, 0xbe, 0x16, 0x33, 0xa0, 0xbe, 0xf7, 0xc7, 0x49, 0x3d,
	0x5b, 0x7e, 0xef, 0x3d, 0x17, 0xb6, 0xf4, 0xbe, 0x40, 0x0a, 0x34, 0x3e,
	0x47, 0xad, 0x61, 0x3e, 0x57, 0x3c, 0x97, 0xbe, 0x09, 0x83, 0x05, 0x3e,
	0xd3, 0x84, 0xa5, 0x3c, 0x66, 0x2f, 0x77, 0xbf, 0xd8, 0xcd, 0xa5, 0x3e,
	0xbd, 0xba, 0x38, 0xbf, 0x4d, 0x2f, 0x68, 0x3e, 0xca, 0x56, 0x10, 0xbf,
	0x9e, 0x17, 0x26, 0x3e, 0x90, 0xfd, 0xbe, 0xbf, 0xe0, 0x8a, 0x84, 0xbd,
	0x97, 0x7d, 0x06, 0x3e, 0x41, 0xf3, 0x1f, 0x3f, 0x87, 0x0e, 0x93, 0x3e,
	0xe1, 0xfa, 0xb0, 0x3e, 0x9d, 0x9d, 0x27, 0x3f, 0x0a, 0x4f, 0x89, 0x3e,
	0x87, 0x94, 0xdf, 0x3d, 0x79, 0x16, 0x76, 0xbe, 0xd9, 0x0e, 0x20, 0x3f,
	0x52, 0x8f, 0x4e, 0x3e, 0xa8, 0x90, 0x46, 0xbd, 0x14, 0xb3, 0x71, 0x3d,
	0x74, 0x4f, 0xb8, 0xbd, 0x22, 0x4e, 0x2b, 0x3f, 0x6e, 0x15, 0x03, 0xbf,
	0x3b, 0x8f, 0x7e, 0xbd, 0x57, 0xd1, 0xd2, 0xbc, 0x41, 0x78, 0x44, 0x3e,
	0x5a, 0x19, 0x40, 0x3e, 0x7f, 0xb1, 0x2e, 0x3b, 0x34, 0x87, 0x41, 0x3c,
	0x9b, 0x62, 0x53, 0xbe, 0x5f, 0x7c, 0x7d, 0xbc, 0xb3, 0x26, 0xc3, 0xbe,
	0x2b, 0xd4, 0x40, 0xbe, 0x45, 0x59, 0xc4, 0xbe, 0xcb, 0x9a, 0x06, 0x3e,
	0xa1, 0x9a, 0x92, 0x3e, 0xdd, 0xe3, 0xc9, 0x3e, 0x86, 0x8d, 0xa7, 0xbe,
	0xa6, 0x19, 0x17, 0xbd, 0x41, 0xa2, 0x60, 0x3e, 0x1b, 0x79, 0xc6, 0xbe,
	0xe5, 0xde, 0xf2, 0x3d, 0xb3, 0x6d, 0x6a, 0xbf, 0x60, 0x2b, 0xdd, 0x3d,
	0x47, 0x78, 0xaa, 0xbe, 0xfd, 0x3c, 0x15, 0x3f, 0x57, 0x84, 0x15, 0xbf,
	0x7a, 0x01, 0x13, 0xbd, 0x09, 0x26, 0x0e, 0xbf, 0x0b, 0xb0, 0x04, 0xbd,
	0x94, 0xd4, 0x17, 0x3e, 0xe0, 0x4e, 0x81, 0xbe, 0x38, 0x87, 0x09, 0x3e,
	0x7f, 0xf9, 0x95, 0xbe, 0x7a, 0x1f, 0xc0, 0xbe, 0xc2, 0xf6, 0xc9, 0x3e,
	0xc7, 0x49, 0x1d, 0xbe, 0x1a, 0x9a, 0x88, 0xbe, 0x68, 0xe0, 0x2d, 0x3e,
	0x71, 0x7a, 0x48, 0xbd, 0x38, 0xc1, 0x36, 0xbd, 0x3c, 0xfe, 0xa6, 0xbd,
	0xf2, 0xc6, 0xec, 0xbe, 0x57, 0x80, 0x23, 0xbe, 0xd1, 0x02, 0x31, 0x3d,
	0x12, 0x53, 0xf8, 0x3c, 0x36, 0xf2, 0x18, 0xbf, 0x48, 0xb3, 0x45, 0xbe,
	0x1e, 0x1d, 0x57, 0xbd, 0x36, 0x90, 0x0c, 0xbd, 0xe6, 0x2f, 0xf4, 0xbd,
	0x23, 0x97, 0xb9, 0x3e, 0x8f, 0xad, 0x95, 0x3f, 0xa8, 0x55, 0x5f, 0xbe,
	0x5d, 0x68, 0xbd, 0x3d, 0xd8, 0x1e, 0x7a, 0xbe, 0x95, 0xbf, 0x4b, 0xbf,
	0x25, 0x0d, 0x86, 0xbe, 0x10, 0xdd, 0xb2, 0xbe, 0xad, 0x44, 0x8f, 0xbe,
	0x11, 0xc7, 0x44, 0x3e, 0x74, 0xa0, 0x7e, 0xbe, 0x33, 0x23, 0xbf, 0xbd,
	0x01, 0xac, 0x6a, 0x3b, 0xe5, 0x09, 0x25, 0x3e, 0x51, 0xb5, 0x02, 0x3f,
	0x64, 0xee, 0x93, 0x3e, 0x29, 0x40, 0x87, 0x3c, 0xfe, 0x78, 0xb2, 0x3d,
	0x79, 0x8e, 0x6b, 0x3e, 0x35, 0xf2, 0x57, 0x3e, 0x1f, 0x71, 0x33, 0xbf,
	0x7f, 0x32, 0x4c, 0xbe, 0xb3, 0x8a, 0xa6, 0x3e, 0x52, 0x20, 0x20, 0x3e,
	0x51, 0xcd, 0x0f, 0x3e, 0xed, 0xb2, 0x6b, 0xbc, 0x57, 0xce, 0x0d, 0x3e,
	0xae, 0x87, 0xad, 0x3e, 0xc6, 0xec, 0x0a, 0xbe, 0x3d, 0x22, 0xc6, 0x3d,
	0x7a, 0x41, 0xbc, 0x3e, 0xb4, 0xe5, 0x80, 0x3e, 0xe6, 0x33, 0x98, 0xbd,
	0x18, 0x6e, 0xd8, 0x3d, 0xb3, 0x5b, 0x10, 0xbf, 0xe8, 0xa4, 0x96, 0x3d,
	0x0d, 0x34, 0xa3, 0xbf, 0x55, 0x25, 0xc3, 0x3e, 0xae, 0x24, 0x01, 0xbe,
	0xc5, 0xd9, 0x0f, 0x3f, 0x86, 0x0a, 0xb0, 0x3e, 0xe7, 0xae, 0xbe, 0x3e,
	0xb6, 0x8a, 0xb0, 0xbd, 0x18, 0xd6, 0x81, 0xbe, 0xb4, 0x17, 0xa2, 0xbd,
	0xa3, 0x95, 0x91, 0x3e, 0xb4, 0xf5, 0xca, 0xbd, 0xbd, 0x21, 0x67, 0xbe,
	0xfd, 0xd1, 0x65, 0xbd, 0x6c, 0x00, 0x87, 0x3e, 0x8b, 0x62, 0xc1, 0x3e,
	0xfd, 0xbf, 0xf8, 0xbd, 0xf5, 0x67, 0x06, 0x3f, 0x64, 0x0b, 0xd7, 0x3e,
	0xe9, 0xb0, 0x45, 0x3e, 0xd2, 0x5c, 0xac, 0xbd, 0xa8, 0x9e, 0x3a, 0x3e,
	0x0d, 0xbe, 0x17, 0xbe, 0x71, 0x98, 0xb0, 0xbe, 0xe9, 0x23, 0x4c, 0x3d,
	0xa1, 0x50, 0x9b, 0x3e, 0x39, 0x29, 0xbe, 0x3e, 0xed, 0xb8, 0x4b, 0x3d,
	0x03, 0xd6, 0xbd, 0x3e, 0xf1, 0xee, 0xba, 0x3e, 0xf6, 0x2c, 0x26, 0xbe,
	0x0b, 0xb9, 0x01, 0xbb, 0xa2, 0x66, 0xaf, 0x3d, 0x98, 0x4a, 0x90, 0x3e,
	0xe3, 0x79, 0x05, 0xbe, 0x67, 0x45, 0x85, 0xbf, 0xc8, 0x43, 0x80, 0xbb,
	0x2a, 0x4e, 0xbf, 0x3e, 0x8d, 0xae, 0x15, 0xbf, 0x29, 0x15, 0x70, 0x3e,
	0x5b, 0x67, 0x58, 0xbf, 0xf9, 0x12, 0x07, 0x3f, 0x1f, 0x29, 0x8e, 0xbd,
	0xab, 0xba, 0xa6, 0xbf, 0xeb, 0x7d, 0x2c, 0x3c, 0x00, 0x21, 0x77, 0xbd,
	0x2c, 0x41, 0xa9, 0x3d, 0x07, 0x07, 0xa9, 0x3d, 0xd0, 0x1b, 0x2f, 0x3d,
	0x72, 0x3b, 0xc2, 0x3d, 0xca, 0xea, 0xdf, 0x3d, 0x2f, 0xde, 0x39, 0xbe,
	0xd5, 0xcf, 0x9c, 0x3e, 0xff, 0x89, 0xe9, 0xbd, 0x1e, 0x21, 0xaa, 0xbf,
	0xab, 0xeb, 0x05, 0xbe, 0x57, 0xc0, 0x3b, 0x3e, 0x4a, 0xb7, 0x10, 0xbd,
	0xc6, 0xf9, 0x19, 0x3d, 0x0b, 0x8b, 0xe0, 0xbe, 0x12, 0x96, 0xe7, 0x3d,
	0x7a, 0xb9, 0x95, 0x3e, 0xd0, 0x40, 0x02, 0xbe, 0x95, 0x89, 0x33, 0x3e,
	0xf9, 0xa9, 0xcd, 0x3d, 0xd5, 0x5e, 0x90, 0x3d, 0xd5, 0xc9, 0xa6, 0xbd,
	0x9a, 0x12, 0xe4, 0x3c, 0xe8, 0x38, 0x0c, 0x3d, 0x07, 0x1b, 0x95, 0xbe,
	0xa5, 0x93, 0xb4, 0x3e, 0xc6, 0x0e, 0x07, 0xbe, 0x51, 0xb6, 0x1b, 0x3e,
	0x4b, 0xbf, 0xe8, 0x3d, 0xa8, 0x62, 0x07, 0x3e, 0x6e, 0xd9, 0x9a, 0xbe,
	0xaa, 0x0f, 0xba, 0xbf, 0xef, 0x9a, 0x79, 0x3e, 0xe9, 0x40, 0x1e, 0x3e,
	0x80, 0x32, 0x2d, 0xbe, 0xaf, 0x7e, 0x41, 0x3d, 0x9e, 0xcf, 0xc1, 0x3d,
	0x68, 0xda, 0x50, 0x3e, 0x26, 0x56, 0x1d, 0xbd, 0x24, 0xcb, 0xaa, 0xbd,
	0x51, 0x4e, 0x8c, 0xbd, 0x8c, 0xb6, 0x0a, 0x3e, 0xc3, 0xba, 0x06, 0x3e,
	0x3c, 0x1e, 0xa4, 0xbf, 0x58, 0x0a, 0xd7, 0x3c, 0x4e, 0xcb, 0x3a, 0xbe,
	0x6f, 0x14, 0x60, 0x3d, 0xe8, 0x9c, 0xdd, 0x3d, 0x00, 0x37, 0x9e, 0x3d,
	0x41, 0x55, 0x71, 0xbd, 0x58, 0x02, 0x8b, 0xbe, 0xbf, 0xd1, 0xda, 0xbc,
	0x57, 0x4f, 0xa6, 0xbd, 0x8c, 0xdc, 0x1a, 0xbd, 0x08, 0x08, 0xb1, 0xbd,
	0x1a, 0x1f, 0x8b, 0xbe, 0xfe, 0x76, 0x99, 0xbe, 0x0c, 0x5b, 0x63, 0x3e,
	0x35, 0x78, 0x08, 0x3e, 0x43, 0xad, 0xa1, 0x3e, 0x3c, 0xdb, 0x2e, 0x3e,
	0x3b, 0x53, 0x1d, 0x3b, 0x7a, 0xb4, 0xc1, 0x3d, 0xf0, 0x4d, 0x32, 0xbd,
	0xf0, 0x87, 0xfd, 0xbd, 0xf7, 0x41, 0x2d, 0xbc, 0xb6, 0x93, 0x51, 0xbe,
	0xc7, 0x53, 0xdb, 0xbd, 0x63, 0xb4, 0x73, 0xbe, 0x08, 0x53, 0x1b, 0x3d,
	0x57, 0x01, 0xb2, 0x3d, 0xba, 0xb1, 0x0e, 0xbe, 0x99, 0x88, 0x4a, 0xbe,
	0xea, 0xa3, 0x62, 0xbe, 0xb6, 0xea, 0x7a, 0xbd, 0xb6, 0x21, 0x36, 0xbd,
	0x0f, 0x06, 0xae, 0x3d, 0x18, 0x03, 0x4c, 0xbe, 0x64, 0xba, 0x09, 0xbe,
	0x39, 0xab, 0x11, 0xbe, 0x25, 0xbf, 0xa9, 0xbc, 0xf5, 0xc0, 0x39, 0xbe,
	0x78, 0xb0, 0x55, 0x3d, 0xbe, 0x90, 0xce, 0xbd, 0xdf, 0x2c, 0xfb, 0xbd,
	0xb9, 0x8f, 0x11, 0xbc, 0xcb, 0xf4, 0x4b, 0x3d, 0x06, 0x31, 0x57, 0xbe,
	0x73, 0xad, 0xe8, 0xbd, 0x94, 0x16, 0x02, 0xbe, 0x4f, 0xc1, 0x69, 0x3d,
	0x1b, 0xd9, 0x6e, 0xbe, 0x88, 0xab, 0x9f, 0x3d, 0xb2, 0x27, 0xca, 0xbd,
	0xdd, 0xcb, 0x45, 0xbd, 0x97, 0x8e, 0xf9, 0xbd, 0x05, 0xb6, 0x86, 0x3d,
	0x78, 0x17, 0x95, 0xbd, 0x5e, 0xdc, 0xbe, 0xbd, 0xbc, 0x48, 0xbc, 0xbd,
	0x54, 0x94, 0x8d, 0xbe, 0xe9, 0xb9, 0x74, 0x3c, 0xe7, 0x13, 0xce, 0xbd,
	0xf2, 0x22, 0xe6, 0xbd, 0x36, 0x0b, 0xcc, 0xbd, 0x07, 0x56, 0x28, 0xbe,
	0x34, 0xe9, 0xaa, 0x3b, 0xb7, 0x32, 0x91, 0xbd, 0xdf, 0x6c, 0x0d, 0xbd,
	0x55, 0xe0, 0xd7, 0xbd, 0xff, 0x4f, 0x47, 0xbd, 0x60, 0xc7, 0x9b, 0xbd,
	0xcd, 0x2f, 0x33, 0xbe, 0x45, 0xc3, 0x25, 0xbd, 0x97, 0xa0, 0xa0, 0xbd,
	0x17, 0x21, 0x08, 0xbe, 0x95, 0xd8, 0x5c, 0x3d, 0x6d, 0xd6, 0x5b, 0xbd,
	0x3e, 0x70, 0x18, 0x3e, 0xd5, 0x96, 0x19, 0xbe, 0xaf, 0xcd, 0xac, 0x3d,
	0xae, 0xb9, 0x9e, 0xbc, 0xb7, 0xdf, 0x8b, 0xbe, 0x12, 0x07, 0x30, 0xbe,
	0x70, 0xd3, 0x3e, 0xbe, 0xbb, 0x15, 0xb2, 0xbc, 0x05, 0x57, 0x88, 0xbd,
	0x42, 0x79, 0x66, 0xbf, 0x7e, 0x51, 0xee, 0xbe, 0xef, 0x20, 0xe0, 0xbd,
	0x54, 0xf9, 0x91, 0x3e, 0x22, 0xec, 0x09, 0xbe, 0x4e, 0xf7, 0xe9, 0x3e,
	0x01, 0x1d, 0x17, 0xbf, 0x98, 0x02, 0xf5, 0xbe, 0x7a, 0x01, 0x5d, 0x3e,
	0x42, 0x31, 0xda, 0x3e, 0x0a, 0x76, 0x6e, 0x3e, 0x42, 0xc1, 0x88, 0xbf,
	0x43, 0x91, 0xd5, 0xbc, 0x15, 0x78, 0x4a, 0x3e, 0xf0, 0xa1, 0x91, 0xbc,
	0x1f, 0x11, 0x7f, 0xbd, 0x90, 0xba, 0x4c, 0xbe, 0x03, 0xab, 0x30, 0x3f,
	0x85, 0xad, 0x20, 0xbe, 0x66, 0x7a, 0x52, 0xbf, 0x93, 0xd1, 0xf5, 0xbe,
	0x17, 0x66, 0x8a, 0x3e, 0x76, 0xb9, 0xb1, 0x3c, 0xe2, 0xf3, 0x6c, 0xbe,
	0xa0, 0x74, 0x00, 0xbf, 0x1a, 0xde, 0x03, 0x3f, 0xc3, 0x6c, 0x38, 0x3e,
	0x65, 0x09, 0xb4, 0xbd, 0xb5, 0x6c, 0xd4, 0x3e, 0x19, 0xdf, 0x22, 0x3f,
	0x11, 0xc4, 0x63, 0xbf, 0xf2, 0xe9, 0xec, 0xbd, 0xe5, 0x80, 0x12, 0xbe,
	0x2a, 0x59, 0x2b, 0xbf, 0x81, 0x93, 0xcc, 0x3c, 0x70, 0xb6, 0xfb, 0xbe,
	0x46, 0xb7, 0x1b, 0xbf, 0x18, 0x5a, 0x9e, 0x3d, 0xd9, 0x3a, 0xb0, 0xbd,
	0x44, 0x04, 0xf2, 0x3e, 0x26, 0xa0, 0x0b, 0xbf, 0x70, 0x64, 0x8e, 0xbd,
	0x5e, 0x47, 0x95, 0x3e, 0xbd, 0x01, 0xc3, 0x3a, 0x55, 0xc5, 0xfd, 0x3d,
	0x0a, 0x32, 0xb2, 0xbe, 0x19, 0x20, 0xf4, 0xbe, 0xa9, 0xd0, 0x44, 0x3e,
	0xdc, 0xb1, 0x04, 0x3f, 0x83, 0x6f, 0xb3, 0x3e, 0xa2, 0xf4, 0xea, 0x3d,
	0x21, 0xae, 0x31, 0x3f, 0xb1, 0x2e, 0x01, 0xbe, 0x80, 0x16, 0x4d, 0x3e,
	0x98, 0x73, 0x5e, 0xbf, 0x46, 0x83, 0xf8, 0x3e, 0xea, 0x7f, 0x1a, 0x3e,
	0x96, 0x6e, 0x13, 0x3e, 0x17, 0xfc, 0xda, 0xbc, 0x31, 0x53, 0x15, 0x3c,
	0xd1, 0xf3, 0x19, 0xbf, 0xbc, 0xac, 0x1d, 0x3e, 0xda, 0x5b, 0xc2, 0x3e,
	0xd5, 0x83, 0x01, 0xbf, 0x7b, 0x2c, 0xa0, 0xbd, 0x66, 0x27, 0x1b, 0xbd,
	0x65, 0xd9, 0x61, 0xbe, 0xf4, 0x08, 0x44, 0xbd, 0x0f, 0xcc, 0x0e, 0xbe,
	0x54, 0xd1, 0x81, 0x3c, 0x09, 0x6a, 0xad, 0xbe, 0x8d, 0x49, 0x1c, 0xbc,
	0x95, 0xb4, 0x5c, 0xbe, 0xf7, 0xb5, 0x50, 0x3d, 0x1e, 0x98, 0xd9, 0xbd,
	0x52, 0xf8, 0x27, 0xbe, 0x92, 0xd8, 0x11, 0xbf, 0xf9, 0xd0, 0x2d, 0xbe,
	0x06, 0x6e, 0x57, 0xbe, 0xc7, 0x50, 0x47, 0xbe, 0xb8, 0x87, 0xc0, 0xbe,
	0x22, 0x48, 0x6e, 0x3c, 0xe3, 0x9a, 0x26, 0xbe, 0x51, 0x16, 0x26, 0xbf,
	0x18, 0x2e, 0x86, 0xbd, 0xe4, 0xa2, 0x23, 0xbe, 0x4d, 0xc3, 0x48, 0xbe,
	0x4e, 0x59, 0xc0, 0x3d, 0x2e, 0x10, 0x3d, 0xbe, 0x6c, 0xb3, 0xd2, 0xbd,
	0xd6, 0x31, 0xc3, 0xbd, 0xd2, 0x32, 0xd1, 0xbe, 0x8a, 0x8e, 0x1e, 0xbf,
	0x30, 0x4c, 0xbe, 0xbe, 0xa4, 0x2c, 0x26, 0xbc, 0xcd, 0x80, 0x37, 0x3d,
	0x34, 0xe9, 0x01, 0x3d, 0x5a, 0x08, 0x47, 0xbd, 0xf7, 0x06, 0x9f, 0xbe,
	0x09, 0x1c, 0x14, 0xbe, 0xd3, 0x59, 0x44, 0xbf, 0xa8, 0xf5, 0x55, 0xbe,
	0x94, 0x2c, 0x8e, 0xbd, 0x97, 0xba, 0x11, 0xbe, 0x1d, 0x54, 0xd4, 0x3b,
	0x3d, 0x69, 0xc3, 0xbe, 0x71, 0xc4, 0xd1, 0xbe, 0x34, 0x94, 0x1c, 0xbf,
	0x18, 0xda, 0xb1, 0xbd, 0x9e, 0x2e, 0x43, 0xbe, 0x10, 0xa9, 0x96, 0x3d,
	0xe3, 0xed, 0x57, 0xbe, 0x5d, 0x68, 0x07, 0x3d, 0x89, 0x04, 0x42, 0xbe,
	0xcb, 0x07, 0x7d, 0xbc, 0xa6, 0x68, 0xdc, 0xbe, 0xb1, 0x5b, 0x72, 0xbe,
	0xa9, 0x14, 0x7f, 0xbe, 0xec, 0x9f, 0xf9, 0xbd, 0x25, 0x2b, 0xe2, 0x3c,
	0xd9, 0xc3, 0x68, 0x3d, 0x25, 0x98, 0xda, 0x3d, 0xba, 0xf7, 0xb8, 0xbd,
	0x42, 0xc2, 0x19, 0xbe, 0x79, 0x84, 0x4d, 0xbe, 0xc1, 0xe3, 0x79, 0xbd,
	0xca, 0x28, 0xb1, 0xbd, 0x95, 0xd2, 0x6d, 0x3c, 0x92, 0x79, 0x90, 0xbe,
	0xa4, 0x87, 0xea, 0x3e, 0xae, 0x30, 0x6a, 0x3e, 0x54, 0x85, 0x2c, 0x3e,
	0x16, 0x0e, 0xd1, 0xbf, 0xa2, 0x53, 0xf0, 0xbd, 0xbd, 0x53, 0x0a, 0xbf,
	0xb6, 0x0c, 0x67, 0x3f, 0x7e, 0x2c, 0x57, 0x3e, 0x9b, 0x58, 0xf8, 0x3b,
	0xf1, 0xde, 0xe5, 0xbd, 0xf5, 0x1a, 0xc8, 0xbd, 0xe2, 0x7f, 0x37, 0xbf,
	0xd2, 0x7b, 0x05, 0x3e, 0x98, 0xe3, 0xd8, 0xbe, 0x06, 0x3f, 0x04, 0xbe,
	0x95, 0x66, 0x97, 0x3e, 0xf5, 0xf6, 0x8e, 0xbe, 0x58, 0x90, 0x00, 0x3e,
	0xf1, 0xed, 0x19, 0xbf, 0x78, 0x8a, 0x46, 0x3e, 0x08, 0x34, 0x2a, 0xbe,
	0x10, 0x03, 0x8d, 0xbe, 0x0c, 0xda, 0x25, 0x3e, 0x91, 0x92, 0x10, 0xbf,
	0x13, 0xb7, 0x3e, 0x3e, 0xb3, 0xdc, 0x51, 0xbf, 0x81, 0x94, 0x9a, 0x3d,
	0xc7, 0x56, 0xd5, 0xbe, 0x32, 0x5f, 0x70, 0x3e, 0x1b, 0x89, 0xa5, 0xbd,
	0x25, 0xcc, 0xcc, 0xbe, 0x9f, 0xc5, 0x82, 0xbe, 0x54, 0xf6, 0x90, 0xbf,
	0x90, 0x8d, 0x2a, 0x3d, 0x48, 0xc3, 0x19, 0xbf, 0xc8, 0x60, 0x1f, 0xbe,
	0x14, 0x43, 0xc6, 0xbd, 0x63, 0x45, 0x28, 0xbd, 0xd1, 0xb7, 0x4a, 0xbf,
	0x20, 0xc8, 0xf8, 0xbe, 0x9b, 0xf5, 0xc9, 0xbc, 0xbd, 0x53, 0xcd, 0xbe,
	0x45, 0x75, 0xea, 0xbe, 0x61, 0x1f, 0x0a, 0xbe, 0xc0, 0x7f, 0xfc, 0xbd,
	0xa7, 0xf7, 0x95, 0xbd, 0xbc, 0x01, 0x15, 0xbd, 0x3b, 0xdb, 0x3b, 0x3e,
	0x7a, 0x9f, 0x88, 0x3e, 0x6f, 0x16, 0xb2, 0x3e, 0xb4, 0x18, 0xc2, 0x3e,
	0xd3, 0x4f, 0xd4, 0x3d, 0xcb, 0xaa, 0x3c, 0x3d, 0x3a, 0x28, 0xac, 0xbc,
	0x13, 0xc2, 0x45, 0x3f, 0x08, 0x7b, 0xc4, 0x3c, 0x9d, 0xd1, 0xaf, 0xbe,
	0x8a, 0x2e, 0xe4, 0xbc, 0x99, 0xc9, 0xc4, 0xbd, 0x45, 0xf6, 0x8b, 0xbf,
	0x03, 0x3a, 0x82, 0xbf, 0x2f, 0x97, 0xb5, 0x3d, 0x12, 0xaf, 0xf2, 0xbd,
	0x3f, 0xcf, 0xa2, 0xbe, 0x3b, 0xcb, 0x96, 0xbe, 0xeb, 0x59, 0x1c, 0x3e,
	0xb9, 0xad, 0x01, 0x3e, 0x6b, 0xc4, 0xba, 0x3d, 0x04, 0x0a, 0xe1, 0xbd,
	0x33, 0x2c, 0x6e, 0x3e, 0x9c, 0xcf, 0x00, 0xbf, 0x00, 0xab, 0xa0, 0x3d,
	0xfb, 0xe5, 0xe8, 0xbe, 0xbb, 0xa2, 0xcf, 0xbe, 0x12, 0xbd, 0x63, 0xbe,
	0xdd, 0x90, 0x38, 0x3e, 0x4c, 0x9e, 0x9a, 0x3e, 0xe5, 0xd9, 0x7e, 0xbe,
	0x75, 0x48, 0x8d, 0xbe, 0xd7, 0x1f, 0x3f, 0x3e, 0x5f, 0x68, 0x7e, 0x3e,
	0x43, 0x15, 0x23, 0x3a, 0xba, 0x1f, 0x35, 0x3e, 0x6f, 0x85, 0x7d, 0xbd,
	0x20, 0x21, 0x5b, 0xbe, 0x60, 0x8c, 0x82, 0x39, 0xb3, 0xb8, 0x58, 0xbe,
	0x0b, 0x4e, 0xe2, 0xbd, 0x69, 0xb3, 0x46, 0x3d, 0x8a, 0xe4, 0x11, 0x3e,
	0xb8, 0xee, 0xf1, 0xbc, 0x75, 0x02, 0x36, 0x3e, 0xd8, 0x56, 0x6e, 0x3e,
	0xae, 0xa9, 0x43, 0xbe, 0x3d, 0xfe, 0x14, 0xc0, 0xc0, 0xd1, 0x30, 0xbf,
	0x8b, 0x56, 0x95, 0x3d, 0xc5, 0xa1, 0x17, 0xbe, 0xb3, 0xa6, 0x69, 0x3e,
	0x0a, 0x3e, 0x90, 0xbe, 0xd3, 0xfd, 0xa5, 0xbb, 0xdd, 0xee, 0x9f, 0xbd,
	0xc6, 0x83, 0x0f, 0xbe, 0x40, 0x2c, 0xbe, 0xbe, 0x21, 0x56, 0x77, 0xbe,
	0x6d, 0x1f, 0x06, 0x3f, 0x27, 0x57, 0xd8, 0xbd, 0xcf, 0xcf, 0xc0, 0x3c,
	0xcf, 0x51, 0xd0, 0x3d, 0x26, 0x8d, 0xbb, 0xbe, 0x14, 0xce, 0x48, 0xbe,
	0xfe, 0xc0, 0xab, 0x3d, 0xe2, 0xf2, 0x15, 0x3e, 0x3e, 0x44, 0xa6, 0xbf,
	0x40, 0x4b, 0xbd, 0x3d, 0xfa, 0xbc, 0x1c, 0x3e, 0x66, 0x62, 0xa8, 0x3e,
	0x5f, 0xe2, 0x68, 0xbe, 0xe8, 0x3f, 0xb5, 0xbe, 0x05, 0xcf, 0x91, 0xbd,
	0x4a, 0xa2, 0x53, 0x3e, 0x90, 0x15, 0x23, 0xbe, 0x01, 0xfa, 0x89, 0xbe,
	0x3f, 0xcd, 0xa2, 0x3d, 0xbb, 0x1d, 0x02, 0xbe, 0xb5, 0xce, 0x83, 0xbf,
	0x66, 0x61, 0xae, 0x3d, 0x30, 0x5d, 0xee, 0xbd, 0xb2, 0xde, 0xcc, 0xbd,
	0x69, 0x5f, 0xab, 0xbd, 0x67, 0x15, 0x05, 0xbd, 0xd2, 0x9b, 0x45, 0xbe,
	0xf0, 0x87, 0x0d, 0xbd, 0x7a, 0xa8, 0xa8, 0xbd, 0xde, 0x58, 0x05, 0xbc,
	0xdd, 0xb4, 0xe9, 0x3c, 0x96, 0xb0, 0x71, 0xbc, 0x20, 0x54, 0x1c, 0xbe,
	0x5d, 0x92, 0x38, 0xbe, 0x89, 0x03, 0xf2, 0xbd, 0x53, 0x05, 0x04, 0xbe,
	0xbf, 0x09, 0x9d, 0xbc, 0xb3, 0x2f, 0xb0, 0xbd, 0x16, 0x89, 0x3c, 0x3c,
	0x3a, 0xef, 0x33, 0xbd, 0x45, 0xd0, 0xc6, 0xbd, 0x8b, 0xc3, 0x6d, 0xbd,
	0x90, 0x72, 0x36, 0xbd, 0x6c, 0x5b, 0xda, 0xbd, 0x6e, 0x8e, 0x98, 0x3c,
	0xc9, 0x55, 0x44, 0xbe, 0x4f, 0x76, 0x55, 0xbc, 0x9a, 0x57, 0x2c, 0xbe,
	0x5a, 0xb6, 0x50, 0xbe, 0x69, 0x95, 0xeb, 0xbd, 0xd3, 0xa7, 0xf7, 0xbc,
	0xcc, 0x64, 0x2f, 0xbc, 0xc6, 0x29, 0x7c, 0xbd, 0xd8, 0x66, 0xdb, 0xbd,
	0x04, 0x5c, 0x78, 0xbd, 0xc3, 0x5f, 0x44, 0x3d, 0xd1, 0x10, 0xbf, 0xbd,
	0xf6, 0x94, 0xc0, 0xbd, 0x3e, 0xaf, 0xc0, 0x3c, 0x1f, 0x73, 0x80, 0xbc,
	0xd5, 0x62, 0xf3, 0xbd, 0x72, 0x97, 0x9e, 0xbd, 0x26, 0x76, 0x2d, 0xbe,
	0x62, 0x79, 0xdb, 0xbd, 0x10, 0x2d, 0x34, 0xbe, 0x35, 0xf7, 0x74, 0xbd,
	0x52, 0xd4, 0x2c, 0xbe, 0x69, 0x8c, 0x2b, 0x3d, 0xa7, 0x87, 0x8b, 0x3d,
	0x8e, 0xe8, 0xd5, 0xbd, 0xd4, 0xae, 0x5d, 0xbe, 0x56, 0xc2, 0xba, 0xbd,
	0x1c, 0x26, 0xeb, 0xbd, 0x19, 0xf2, 0x4b, 0xbd, 0x37, 0xa7, 0x24, 0xbe,
	0x1f, 0xbf, 0xeb, 0xbc, 0x4c, 0x27, 0x42, 0xbe, 0x45, 0x64, 0x0b, 0xbe,
	0xe8, 0x91, 0x1f, 0xbe, 0xad, 0x68, 0x09, 0x3d, 0x52, 0x3f, 0x97, 0xbd,
	0xdc, 0xa7, 0x51, 0xbe, 0x0f, 0x00, 0x09, 0xbe, 0x08, 0xf1, 0x1f, 0xbe,
	0x7f, 0x76, 0x4d, 0xbe, 0x05, 0x3a, 0x8f, 0xbd, 0x17, 0xf4, 0x29, 0x3d,
	0x52, 0x32, 0x10, 0xbf, 0x58, 0xbb, 0x32, 0x3f, 0x4f, 0xe4, 0xb0, 0xbf,
	0x44, 0x83, 0x1b, 0xbf, 0x99, 0x0e, 0xda, 0x3d, 0x5b, 0x58, 0x13, 0xbf,
	0x03, 0x20, 0x27, 0x3d, 0x9e, 0xc0, 0x1c, 0x3e, 0x9b, 0x75, 0x63, 0x3e,
	0x8f, 0x3a, 0x26, 0xbf, 0xea, 0xf7, 0x94, 0x3c, 0x21, 0xf2, 0x1e, 0xc0,
	0xaa, 0x1c, 0x8a, 0xbc, 0x47, 0x76, 0x7b, 0xbf, 0x22, 0x0e, 0x83, 0x3d,
	0x25, 0x70, 0x0c, 0xbf, 0xf4, 0x3a, 0xc1, 0x3d, 0x66, 0x5e, 0x3c, 0xbf,
	0x5d, 0x42, 0x0a, 0x3e, 0x46, 0xc5, 0xf5, 0xbe, 0x2d, 0x15, 0x29, 0x3e,
	0x1f, 0x11, 0xf4, 0xbe, 0xe7, 0xa3, 0x81, 0xbd, 0x0c, 0x3a, 0xcf, 0xbf,
	0x5d, 0xea, 0xba, 0x3e, 0xac, 0x45, 0xad, 0xbf, 0x72, 0xc4, 0xa6, 0xbd,
	0x00, 0xc9, 0xfe, 0xbf, 0x3c, 0x41, 0x17, 0x3f, 0x64, 0x2c, 0x11, 0x3c,
	0x76, 0x8a, 0xc4, 0xbf, 0xd8, 0x1d, 0x5b, 0xbe, 0x89, 0xb4, 0x05, 0x3e,
	0x49, 0xe3, 0x13, 0x3f, 0xd1, 0xcc, 0x17, 0xc0, 0x6e, 0x58, 0x35, 0xbf,
	0x82, 0xfb, 0x97, 0xbf, 0x41, 0x2d, 0xc4, 0x3b, 0xc9, 0x4d, 0x08, 0x3f,
	0xb5, 0x0d, 0xc9, 0xbe, 0x3b, 0x17, 0x3e, 0xbf, 0x0a, 0xad, 0x25, 0xbf,
	0xf6, 0x3b, 0x27, 0xbf, 0x8d, 0x07, 0x0f, 0xbe, 0xfe, 0x44, 0xea, 0x3e,
	0x8a, 0xbe, 0x2e, 0xbf, 0x70, 0xde, 0x23, 0xc0, 0x38, 0xb8, 0xf1, 0xbd,
	0x39, 0x18, 0x0f, 0xbf, 0x0b, 0xc4, 0x95, 0x3e, 0xf4, 0xb6, 0x0b, 0xbf,
	0x2c, 0x8e, 0xf7, 0x3d, 0xdd, 0x8c, 0x0e, 0xbf, 0xb0, 0x94, 0x9f, 0xbe,
	0x08, 0x05, 0xcb, 0xbd, 0x5f, 0x3c, 0x99, 0x3f, 0xe0, 0xfe, 0x29, 0xbe,
	0x96, 0x9f, 0x26, 0x3f, 0xa5, 0x44, 0xa3, 0xbf, 0xac, 0x4d, 0x8a, 0xbe,
	0x50, 0x2d, 0xdd, 0xbe, 0xee, 0x71, 0x0d, 0xbe, 0xdc, 0xd1, 0xe6, 0x3e,
	0x4b, 0x1a, 0x39, 0x3e, 0x7c, 0x56, 0x8c, 0xbe, 0x8c, 0x4b, 0x13, 0xbd,
	0xf5, 0x63, 0x6c, 0x3d, 0x1c, 0x54, 0x1b, 0xbd, 0x38, 0x5e, 0x67, 0xbc,
	0x22, 0x18, 0x2b, 0xbe, 0xe2, 0x46, 0x4d, 0xbd, 0x45, 0x6d, 0x4a, 0x3e,
	0xb1, 0x3a, 0x92, 0x3e, 0x05, 0x53, 0xcc, 0xbf, 0xc2, 0x19, 0xa7, 0x3d,
	0x4b, 0x55, 0x3f, 0x3d, 0xf6, 0x1c, 0xaf, 0xbc, 0xbc, 0x75, 0xae, 0x3c,
	0x39, 0xa4, 0x79, 0xbe, 0x23, 0x70, 0x16, 0x3e, 0x94, 0x26, 0x9c, 0xbc,
	0x76, 0x6a, 0xa8, 0x3e, 0xf6, 0x3e, 0xe1, 0xbd, 0x3a, 0xd4, 0x2d, 0x3a,
	0xc1, 0x7b, 0x08, 0x3c, 0x9a, 0xcd, 0xfe, 0x3d, 0x1b, 0xc9, 0x8e, 0x3e,
	0x17, 0xf5, 0x9e, 0x3b, 0x1d, 0x87, 0xf8, 0xbd, 0x7d, 0x42, 0x05, 0x3e,
	0xe8, 0x3d, 0xdb, 0xbe, 0x76, 0xe1, 0xe6, 0xbd, 0x0e, 0xf0, 0x8b, 0x3a,
	0x79, 0x2a, 0x1a, 0xbd, 0x45, 0x18, 0x30, 0xbf, 0xac, 0x70, 0x9e, 0xbf,
	0x14, 0x8e, 0xb5, 0x3c, 0xa9, 0xea, 0x8a, 0x3c, 0x0a, 0x4f, 0xae, 0xbe,
	0xff, 0x1b, 0x50, 0x3e, 0x3b, 0x75, 0x28, 0x3d, 0x14, 0xbd, 0xd6, 0xbc,
	0xf7, 0x49, 0x32, 0xbe, 0xb2, 0x7a, 0x8d, 0xbd, 0x42, 0xb9, 0x6f, 0xbd,
	0xcb, 0xc1, 0x48, 0x3e, 0x69, 0xb2, 0xe9, 0xbd, 0x2b, 0x06, 0x9e, 0xbf,
	0xfa, 0x9d, 0xd9, 0x3d, 0xc8, 0x68, 0xc9, 0x3c, 0xd9, 0xe9, 0x36, 0xbc,
	0xb7, 0x3d, 0xb2, 0x3d, 0x86, 0x65, 0xd9, 0xbd, 0x9d, 0xdf, 0x3b, 0x3e,
	0x02, 0xc9, 0xc3, 0xbd, 0xd0, 0x8c, 0x99, 0x3d, 0x5b, 0xf4, 0x4c, 0xbe,
	0xd5, 0x33, 0x39, 0x3e, 0x45, 0xfb, 0x85, 0xba, 0xa8, 0x00, 0xa9, 0xbe,
	0xe7, 0xa9, 0x4d, 0xbd, 0xd3, 0x92, 0x0e, 0xbd, 0x47, 0x43, 0x8a, 0x3e,
	0x6f, 0xb0, 0xfd, 0x3d, 0xf6, 0x1e, 0xd7, 0x3b, 0x83, 0x97, 0x26, 0xbd,
	0x3e, 0x54, 0x8c, 0xbd, 0xac, 0xb5, 0x5c, 0x3b, 0x14, 0x43, 0xee, 0x3e,
	0x53, 0x9e, 0x2e, 0x3d, 0x61, 0x64, 0xbe, 0x3e, 0x0f, 0xab, 0x53, 0xbc,
	0x2a, 0x01, 0xe8, 0x3e, 0x32, 0x80, 0x3a, 0x3f, 0xc4, 0x14, 0x18, 0xbf,
	0x30, 0x16, 0xcd, 0x3c, 0xe4, 0xde, 0xb7, 0xbf, 0xd2, 0xb2, 0x75, 0x3e,
	0x86, 0x04, 0xc8, 0xbc, 0x3e, 0xac, 0x95, 0xbd, 0x2c, 0x43, 0x94, 0xbe,
	0x6b, 0x5c, 0x02, 0x3f, 0xf5, 0x1b, 0x4c, 0xbe, 0xa5, 0xd1, 0x1e, 0xbb,
	0x5f, 0x0d, 0x83, 0xbe, 0xe7, 0x45, 0x8f, 0x3e, 0x21, 0x8c, 0x8f, 0xbe,
	0x74, 0xc4, 0x65, 0x3e, 0xc3, 0x63, 0xcc, 0xbe, 0x82, 0xb9, 0x67, 0x3d,
	0x9d, 0x6c, 0xd9, 0xbd, 0x81, 0x0a, 0xfb, 0xbe, 0x12, 0x67, 0xcd, 0xbd,
	0xa5, 0x72, 0x8f, 0xbe, 0x9c, 0xec, 0xb4, 0x3d, 0xac, 0x59, 0x7b, 0x3e,
	0x87, 0x37, 0x2f, 0xbf, 0xf4, 0x1b, 0xe0, 0xbd, 0x00, 0xaf, 0x02, 0xbe,
	0x86, 0x2f, 0x86, 0x3d, 0x9b, 0x4e, 0xf9, 0xbe, 0x40, 0xcb, 0x43, 0x3e,
	0xae, 0xfa, 0x60, 0xbe, 0x09, 0x6c, 0x83, 0x3e, 0xe2, 0x41, 0xe9, 0xbd,
	0xb5, 0x1b, 0xa8, 0xbd, 0x28, 0xdc, 0x9c, 0xbe, 0x0b, 0x4e, 0x1f, 0x3f,
	0xe5, 0xd4, 0x35, 0x3e, 0xdf, 0xeb, 0xa3, 0x3e, 0x56, 0x07, 0x99, 0xbf,
	0x8a, 0x40, 0x4f, 0xbd, 0xea, 0xc0, 0xc6, 0xbc, 0xba, 0x80, 0x38, 0x3f,
	0x2f, 0x3b, 0x66, 0x3e, 0xff, 0xba, 0x13, 0xbf, 0x5a, 0x4f, 0x32, 0xbf,
	0xb5, 0xa8, 0xad, 0xbe, 0x13, 0x67, 0xa8, 0xbe, 0x7a, 0x23, 0x26, 0xbf,
	0x74, 0xa3, 0xef, 0x3e, 0xd7, 0x66, 0xea, 0x3e, 0x6e, 0xc6, 0xab, 0x3d,
	0x9e, 0x3d, 0x8b, 0x3e, 0xa9, 0x32, 0x24, 0x3e, 0x11, 0x46, 0xe3, 0x3d,
	0x79, 0x5b, 0x80, 0x3d, 0x7c, 0x95, 0x95, 0x3d, 0x03, 0xc3, 0x87, 0x3e,
	0x41, 0x46, 0xb2, 0xbe, 0x57, 0x13, 0x31, 0x3e, 0xf6, 0x26, 0xc9, 0xbd,
	0x03, 0x36, 0x28, 0xbe, 0x48, 0x50, 0x22, 0xbe, 0x6d, 0xec, 0x93, 0xbe,
	0x1c, 0xf1, 0x22, 0xbe, 0x76, 0x7b, 0x1a, 0xbe, 0x25, 0xf2, 0x90, 0xbe,
	0x16, 0x52, 0x39, 0xbe, 0xc0, 0x7e, 0xb2, 0xbe, 0x21, 0x21, 0x12, 0xbe,
	0x33, 0xff, 0x32, 0xbe, 0xa3, 0xdf, 0xb1, 0x3d, 0x3b, 0x28, 0x41, 0xbe,
	0x57, 0x0f, 0x07, 0x3d, 0xd8, 0xcb, 0xc3, 0xbd, 0xc0, 0x20, 0x59, 0xbe,
	0x76, 0x30, 0xd6, 0xbd, 0x27, 0xd9, 0x7c, 0xbe, 0x2a, 0xb2, 0xa0, 0xbe,
	0x4e, 0x00, 0x90, 0x3c, 0x0d, 0x6b, 0x1a, 0xbe, 0xd3, 0x0a, 0x44, 0xbc,
	0xd0, 0x73, 0x62, 0xbe, 0x96, 0x83, 0xa5, 0xbd, 0x73, 0xb1, 0x18, 0xbe,
	0x94, 0xb7, 0x8f, 0xbe, 0x69, 0xac, 0x1f, 0xbd, 0xa2, 0x7f, 0x83, 0xbe,
	0x20, 0xb5, 0x3d, 0xbe, 0xf1, 0xf4, 0x51, 0xbe, 0x62, 0x02, 0x94, 0xbc,
	0xef, 0x0f, 0x97, 0xbe, 0x36, 0x07, 0x9b, 0xbe, 0xbe, 0x25, 0x0b, 0xbe,
	0x9c, 0x76, 0xfe, 0xbd, 0x92, 0x56, 0x4c, 0x3d, 0xe1, 0x69, 0x0a, 0xbe,
	0x71, 0x0d, 0xb0, 0xbd, 0x32, 0x3e, 0x78, 0xbe, 0xc9, 0xf7, 0x22, 0xbd,
	0x29, 0x2f, 0xd2, 0xbc, 0x1e, 0x89, 0x0c, 0xbe, 0xdf, 0x4f, 0x59, 0xbd,
	0xe5, 0xb0, 0x09, 0xbe, 0x50, 0xc6, 0xee, 0xbd, 0xc8, 0xb1, 0x8c, 0xbd,
	0x22, 0x2b, 0xc9, 0xbd, 0xef, 0xb7, 0x75, 0xbe, 0xd8, 0x09, 0xa2, 0xbe,
	0x4f, 0x9d, 0x1f, 0xbd, 0x38, 0x94, 0xc2, 0x3c, 0x8e, 0xb4, 0xe9, 0x3b,
	0xff, 0xb3, 0x23, 0xbe, 0xc6, 0x76, 0x97, 0x3c, 0x06, 0x4a, 0x00, 0xbe,
	0x9f, 0xa3, 0xc3, 0xbd, 0xfe, 0x6c, 0xa5, 0xbe, 0xec, 0x2d, 0x43, 0x3d,
	0x0f, 0xac, 0xf3, 0xbd, 0x50, 0x2a, 0x63, 0xbd, 0x99, 0x5a, 0xaf, 0xbd,
	0x7b, 0x22, 0xc3, 0xbd, 0x80, 0x37, 0x92, 0xbd, 0xda, 0x1e, 0x3c, 0xbe,
	0xb3, 0x5d, 0x1e, 0x3f, 0xb4, 0xed, 0x23, 0x3f, 0x95, 0x8b, 0x05, 0xbe,
	0xe2, 0x2a, 0xa0, 0x3e, 0x97, 0x51, 0x8e, 0xbf, 0x56, 0x72, 0xb3, 0x3c,
	0x28, 0x75, 0x84, 0x3b, 0x19, 0x80, 0x32, 0x3f, 0x3d, 0x28, 0xe6, 0xbd,
	0x10, 0xa4, 0xd0, 0xbe, 0x22, 0xb9, 0xc7, 0x3d, 0x86, 0x6d, 0xfb, 0xbe,
	0x92, 0x1e, 0x99, 0x3d, 0x8a, 0x58, 0x62, 0xba, 0x18, 0x02, 0x45, 0x3e,
	0xad, 0xf3, 0x76, 0xbe, 0xfb, 0xf4, 0xa8, 0xbe, 0xad, 0x00, 0x9f, 0x3d,
	0xcc, 0xe5, 0x2d, 0xbf, 0xab, 0xfc, 0xc6, 0xbe, 0xbb, 0x39, 0x30, 0xbc,
	0x8d, 0xb0, 0x8d, 0xbd, 0x68, 0x24, 0x04, 0xbe, 0xd4, 0x00, 0xe8, 0xbc,
	0x6f, 0xfe, 0x5a, 0x3d, 0x33, 0x9c, 0x94, 0xbe, 0x8f, 0xbc, 0x8b, 0xbf,
	0x78, 0xc0, 0x87, 0x3e, 0x5c, 0x72, 0x1d, 0xbf, 0x1b, 0x6e, 0x57, 0xbf,
	0xd5, 0x52, 0x0a, 0x3e, 0xb2, 0x34, 0xa8, 0xbd, 0xbe, 0x5e, 0x30, 0xbf,
	0x22, 0xaf, 0x24, 0x3f, 0x8c, 0xd1, 0xf3, 0x3d, 0xec, 0x62, 0xd8, 0xbd,
	0xf6, 0x71, 0xfc, 0xbe, 0x61, 0x5f, 0x19, 0xbe, 0x85, 0x88, 0xac, 0x3e,
	0xc1, 0x47, 0x4a, 0x3d, 0x03, 0xc6, 0x70, 0x3e, 0xcf, 0x0b, 0xa2, 0x3e,
	0x4b, 0x79, 0xbb, 0xbe, 0x9d, 0x6b, 0x84, 0x3d, 0xfd, 0x2c, 0x3f, 0xbe,
	0x5f, 0x86, 0x8e, 0xbc, 0xa5, 0x88, 0x19, 0x3f, 0xcb, 0xb9, 0x4d, 0x3e,
	0xa2, 0xd3, 0xab, 0x3e, 0x96, 0x17, 0x9c, 0xbe, 0x7e, 0xb7, 0xb5, 0xbe,
	0x25, 0x2a, 0xf6, 0xbe, 0x66, 0x00, 0x09, 0xbf, 0x65, 0x6f, 0x27, 0xbe,
	0x91, 0x01, 0xd7, 0xbe, 0xb9, 0x1e, 0xb3, 0xbe, 0xde, 0x4b, 0xc1, 0xbe,
	0x11, 0x53, 0x46, 0x3d, 0xd5, 0x05, 0x66, 0xbe, 0xec, 0xd1, 0xda, 0xbd,
	0x39, 0x37, 0x31, 0xbf, 0x0e, 0x86, 0xe9, 0xbc, 0x20, 0xad, 0xd8, 0xbd,
	0x1b, 0x11, 0x1d, 0x3c, 0x80, 0x67, 0x77, 0xbf, 0xe4, 0xa3, 0x80, 0x3d,
	0x28, 0xd0, 0x8c, 0xbf, 0xc5, 0x14, 0xb0, 0x3e, 0x98, 0x31, 0xcf, 0xbe,
	0x58, 0x6c, 0x46, 0xbf, 0x11, 0xd2, 0xc1, 0xbe, 0x1f, 0x6b, 0x71, 0x3f,
	0x20, 0x38, 0x0a, 0xbe, 0x65, 0x59, 0xc4, 0x3e, 0x04, 0x36, 0x8a, 0xbe,
	0x76, 0x2a, 0xfa, 0xbe, 0x3c, 0xdc, 0xc7, 0xbe, 0xf4, 0x5a, 0x06, 0x3f,
	0xe3, 0xac, 0x3e, 0xbf, 0x3e, 0x7f, 0xab, 0xbd, 0x93, 0xe6, 0x99, 0x3d,
	0x9b, 0xf4, 0x16, 0x3f, 0x95, 0xa8, 0x7d, 0xbe, 0x21, 0x86, 0xd8, 0xbe,
	0x64, 0xa8, 0xe3, 0xbe, 0x87, 0x1e, 0x97, 0xbe, 0xce, 0x3d, 0x2a, 0xbe,
	0xc6, 0x05, 0x08, 0x3f, 0x18, 0x3e, 0xcd, 0xbe, 0x5d, 0xed, 0xcc, 0x3d,
	0xd9, 0x24, 0x98, 0xbe, 0x64, 0x25, 0x4c, 0xbd, 0x5c, 0xb2, 0x4e, 0x3e,
	0x4a, 0xfa, 0x43, 0xbe, 0x67, 0x20, 0x77, 0x3e, 0xfd, 0x5a, 0x80, 0xbe,
	0x49, 0xf6, 0x96, 0xbd, 0xbf, 0x55, 0x93, 0x3e, 0x68, 0x3b, 0x10, 0x3d,
	0xbf, 0x13, 0x27, 0xbe, 0xc2, 0x93, 0xd9, 0x3d, 0xa3, 0xd3, 0x75, 0xbd,
	0x9a, 0xea, 0x9e, 0x3c, 0xc2, 0x26, 0x91, 0xbe, 0x9b, 0xc8, 0x75, 0x3e,
	0x42, 0x3a, 0x67, 0x3e, 0x4f, 0x0c, 0x2e, 0x3f, 0x9e, 0x2c, 0x95, 0xbd,
	0x62, 0xd9, 0x8d, 0xbe, 0x4a, 0x3a, 0x61, 0xbd, 0x71, 0xdc, 0x07, 0xbc,
	0xe3, 0xad, 0x1a, 0xbf, 0x74, 0x36, 0xb8, 0xbd, 0x49, 0x9c, 0xb6, 0x3e,
	0x34, 0x5c, 0xdf, 0x3d, 0x55, 0x5f, 0x27, 0x3d, 0xbd, 0x46, 0x5d, 0xbf,
	0xfa, 0x6c, 0x94, 0xbf, 0xd3, 0xd9, 0xef, 0xbe, 0x1f, 0xa4, 0x1d, 0x3f,
	0x04, 0x47, 0xb1, 0xbe, 0xd3, 0xe4, 0x21, 0x3f, 0x59, 0xaa, 0xd0, 0xbe,
	0x64, 0x13, 0x18, 0xbf, 0x89, 0x97, 0x97, 0x3e, 0xe0, 0xfe, 0xbe, 0x3d,
	0x0c, 0x8f, 0x29, 0xbe, 0x20, 0xf7, 0x80, 0xbe, 0xbd, 0xbf, 0x50, 0x3d,
	0x20, 0x45, 0x71, 0xbf, 0xef, 0x48, 0x37, 0xbf, 0xd2, 0x15, 0x25, 0xbf,
	0xb9, 0x11, 0xd0, 0x3e, 0x1a, 0xdf, 0xc2, 0xbd, 0xf6, 0x5a, 0x02, 0xbf,
	0xc5, 0x0c, 0xa9, 0xbf, 0x0c, 0x78, 0xe8, 0xbd, 0xf7, 0xf5, 0xc7, 0xbd,
	0xee, 0x63, 0x58, 0xbf, 0xc4, 0x73, 0x60, 0x3d, 0x7e, 0x8d, 0x44, 0xbf,
	0x59, 0xdd, 0x87, 0xbd, 0xf4, 0xa6, 0x88, 0xbf, 0x07, 0xc2, 0x38, 0xbf,
	0x89, 0x3c, 0x95, 0xbd, 0x42, 0x49, 0xf0, 0xbe, 0xb4, 0x4b, 0x33, 0xbf,
	0x0d, 0xbb, 0x0a, 0xbf, 0x19, 0xf8, 0x88, 0x3e, 0x92, 0xc7, 0xca, 0xbe,
	0x74, 0x3d, 0x62, 0x3e, 0x73, 0xaa, 0x1d, 0x3f, 0x81, 0x0a, 0x87, 0x3e,
	0x86, 0xa7, 0xd7, 0xbe, 0x95, 0xc8, 0xa4, 0x3d, 0x53, 0xf8, 0x25, 0x3d,
	0xcc, 0x59, 0x8c, 0xbd, 0x5f, 0x0f, 0xe1, 0xbf, 0x5e, 0x13, 0xca, 0xbe,
	0x6b, 0xbc, 0x04, 0xbf, 0x8c, 0x7c, 0xfd, 0xbb, 0xca, 0x73, 0x40, 0xbf,
	0xc8, 0x01, 0x8d, 0x3d, 0x85, 0xce, 0xfa, 0x3e, 0xde, 0xd0, 0xbd, 0xbe,
	0x43, 0x17, 0xbf, 0xbd, 0x9b, 0xdf, 0x1e, 0xbd, 0x92, 0x3a, 0x78, 0xbe,
	0x46, 0x41, 0xf2, 0x3e, 0xc0, 0x7e, 0xb6, 0x3d, 0xb3, 0x7e, 0x0b, 0x3e,
	0xd4, 0x40, 0x00, 0xbf, 0xa0, 0xff, 0x91, 0xbf, 0xd7, 0x23, 0x88, 0x3e,
	0x0e, 0x79, 0x71, 0x3e, 0xfe, 0xdb, 0xc0, 0xbe, 0x46, 0x3d, 0x02, 0x3f,
	0x0b, 0xbd, 0x1f, 0xbf, 0x65, 0x5a, 0x49, 0xbe, 0x84, 0x33, 0xb1, 0xbf,
	0x82, 0x2b, 0x8a, 0xbd, 0x40, 0x69, 0x93, 0xbf, 0x7b, 0x3c, 0x75, 0x3d,
	0x25, 0x30, 0x91, 0x3e, 0x66, 0xda, 0x8e, 0xbf, 0x8c, 0x32, 0x77, 0x3e,
	0x18, 0xd1, 0xbc, 0x3d, 0x3d, 0x12, 0xf2, 0xbe, 0xcd, 0xf7, 0x03, 0xbe,
	0x36, 0x87, 0x08, 0x3c, 0x72, 0xbb, 0x3e, 0x3e, 0x02, 0xb5, 0x93, 0x3e,
	0x9b, 0xa0, 0x06, 0xbf, 0x4b, 0x80, 0xf3, 0xbe, 0x31, 0xb2, 0xcd, 0x3d,
	0xaf, 0x83, 0xa0, 0x3e, 0x0f, 0xb3, 0xc5, 0x3d, 0xdd, 0xc0, 0x3c, 0x3e,
	0x8a, 0x13, 0x37, 0xbe, 0xdf, 0x8b, 0x4b, 0xbf, 0xb7, 0x7f, 0xfb, 0x3c,
	0x1b, 0xdf, 0x09, 0xbd, 0xc2, 0x34, 0x28, 0xbe, 0x5f, 0x18, 0x84, 0xbf,
	0x0e, 0x2e, 0x01, 0x3e, 0x26, 0xf6, 0x15, 0xbe, 0xee, 0x93, 0x36, 0x3f,
	0x44, 0x14, 0xda, 0xbe, 0x85, 0xf4, 0x30, 0x3e, 0x95, 0x6a, 0xf0, 0x3e,
	0xc2, 0xc3, 0x25, 0xbf, 0x31, 0x1c, 0x2e, 0x3f, 0x39, 0xd4, 0x36, 0xbe,
	0x4b, 0xdb, 0x94, 0x3e, 0xbd, 0x00, 0x77, 0xbf, 0xd7, 0x9d, 0xa9, 0xbe,
	0x6c, 0x13, 0xfc, 0xbe, 0x10, 0x69, 0x2f, 0xbe, 0x46, 0xa0, 0x13, 0xbe,
	0x84, 0x44, 0xea, 0xbc, 0x71, 0x68, 0x2a, 0xbd, 0xc9, 0xf3, 0x81, 0x3e,
	0x6b, 0xcb, 0x24, 0xbe, 0xda, 0x41, 0x7a, 0xbe, 0xab, 0xdb, 0x11, 0xbf,
	0xc9, 0xdd, 0xc7, 0xbe, 0x2b, 0x6d, 0xfc, 0x3c, 0xfb, 0xa8, 0xa5, 0xbe,
	0xf3, 0x8b, 0x37, 0xbf, 0x73, 0xce, 0x39, 0xbe, 0x5e, 0xf5, 0x10, 0xbf,
	0x87, 0xd8, 0xd3, 0xbc, 0xa9, 0x59, 0x73, 0xbe, 0xbc, 0x9f, 0xdd, 0xbe,
	0x19, 0xa4, 0x69, 0xbf, 0xf9, 0x16, 0x25, 0xbe, 0x3a, 0x93, 0xfe, 0xbe,
	0xab, 0xe2, 0x5e, 0x3e, 0x02, 0x9e, 0x9d, 0xbf, 0x57, 0xd1, 0x5e, 0x3e,
	0x77, 0x9b, 0xf5, 0x3e, 0x24, 0x3a, 0x6d, 0xbe, 0x7d, 0xe0, 0x97, 0xbc,
	0x6d, 0xd2, 0x18, 0xbf, 0x2f, 0x0e, 0x2c, 0xbf, 0x84, 0xe4, 0x8f, 0x3e,
	0xbe, 0x8b, 0xd4, 0xbe, 0xa2, 0x0c, 0x12, 0xbf, 0xf9, 0xcd, 0x04, 0xbf,
	0x5a, 0x6a, 0xaf, 0xbe, 0xa7, 0xfa, 0x3d, 0xbc, 0x96, 0x33, 0x39, 0xbe,
	0x39, 0x05, 0x1d, 0x3e, 0x74, 0xa0, 0x86, 0x3e, 0x76, 0x0c, 0xb7, 0xbe,
	0x28, 0xa3, 0x54, 0xbe, 0x8d, 0x83, 0x2c, 0xbe, 0x96, 0x9f, 0x1e, 0x3d,
	0xfd, 0x2f, 0xc3, 0xbe, 0x3c, 0x06, 0xef, 0xbc, 0xb1, 0x0c, 0xbc, 0xbd,
	0x6a, 0xd9, 0x3e, 0x3e, 0x7a, 0xe7, 0x55, 0x3d, 0x78, 0xdb, 0x0b, 0x3f,
	0x48, 0x89, 0x87, 0x3e, 0x94, 0xf0, 0x83, 0x3e, 0xdf, 0xd9, 0x9e, 0xbe,
	0xab, 0x8c, 0xa1, 0x3b, 0xa8, 0x82, 0xaa, 0x3d, 0xae, 0x15, 0x87, 0xbf,
	0x15, 0x84, 0x9b, 0xbe, 0xf1, 0xbb, 0x88, 0xbe, 0x5a, 0xbb, 0xd3, 0x3e,
	0x75, 0x88, 0x94, 0x3c, 0x4a, 0xd5, 0x09, 0x3e, 0x96, 0xe9, 0x5c, 0xbe,
	0x8d, 0x81, 0x03, 0x3f, 0x1d, 0xd3, 0xf3, 0xbe, 0x4d, 0x8a, 0x37, 0x3c,
	0xc4, 0x86, 0xad, 0xbf, 0xf9, 0x79, 0x06, 0x3f, 0xd6, 0xb4, 0x85, 0xbe,
	0xa8, 0x3e, 0x14, 0xbd, 0xf2, 0x58, 0x10, 0x3e, 0x9f, 0x18, 0x7a, 0x3b,
	0x3c, 0xef, 0x84, 0xbd, 0x80, 0x1d, 0x6a, 0x3e, 0xfd, 0xfd, 0x49, 0xbd,
	0x3d, 0x0a, 0x85, 0xbc, 0xc7, 0x60, 0xe5, 0x3d, 0x43, 0xdf, 0xee, 0x3e,
	0xb7, 0x19, 0xae, 0x3e, 0xab, 0x45, 0xca, 0x3e, 0x29, 0x4c, 0x92, 0x3e,
	0x43, 0x4f, 0x57, 0x3e, 0x0c, 0x5a, 0x8d, 0x3e, 0x2e, 0x2e, 0x12, 0xbe,
	0xba, 0x1f, 0x04, 0x3f, 0x66, 0xf2, 0xef, 0xbe, 0x8a, 0x0d, 0x59, 0xbc,
	0x08, 0xa1, 0x51, 0xbe, 0x24, 0xb8, 0x8c, 0x3e, 0x2c, 0x78, 0x5a, 0xbe,
	0xc5, 0x60, 0x0a, 0x3e, 0xc2, 0xb9, 0x44, 0xbf, 0x8c, 0x63, 0xb2, 0xbd,
	0x34, 0xbf, 0xd2, 0xbe, 0xdf, 0x91, 0xa3, 0x3e, 0x3f, 0xdd, 0x83, 0xbe,
	0x9e, 0x4d, 0x4e, 0x3e, 0xd9, 0xe7, 0x0e, 0x3f, 0xf8, 0x72, 0x7b, 0x3d,
	0xe9, 0x7d, 0x47, 0x3e, 0xaa, 0xd9, 0x3c, 0x3d, 0xb0, 0x75, 0x07, 0xbf,
	0x38, 0xe1, 0xe8, 0xbc, 0x0a, 0x71, 0x91, 0x3d, 0xb2, 0xa0, 0xa0, 0x3e,
	0x14, 0x72, 0xab, 0xbe, 0xa2, 0x99, 0xaf, 0xbe, 0x31, 0xaa, 0x0b, 0x3c,
	0xa2, 0x5c, 0x7c, 0xbe, 0xd4, 0x8a, 0x0f, 0xbe, 0xa2, 0xed, 0x0d, 0xbf,
	0x0d, 0x5d, 0x36, 0x3e, 0xa3, 0x90, 0xc5, 0xbb, 0x89, 0x18, 0x02, 0x3e,
	0x1c, 0xe3, 0xa1, 0x3c, 0x9b, 0xdd, 0x3f, 0x3d, 0x7f, 0x36, 0x80, 0xbe,
	0xa8, 0x7e, 0x54, 0xbf, 0x2e, 0xb9, 0x22, 0x3d, 0xf2, 0x5a, 0x12, 0xbe,
	0x28, 0x4e, 0x1d, 0xbd, 0x3d, 0xa3, 0x30, 0xbf, 0xc8, 0x6f, 0xba, 0xbe,
	0x61, 0xbf, 0x61, 0x3e, 0xd7, 0xc5, 0x38, 0xbe, 0xe2, 0x39, 0xca, 0xbe,
	0x5a, 0x88, 0x93, 0xbe, 0x61, 0xb0, 0xa6, 0x3e, 0x67, 0x6f, 0x10, 0xbe,
	0x27, 0x8d, 0xf3, 0xbd, 0xb9, 0x66, 0xcc, 0xbd, 0x74, 0x44, 0x9c, 0xbd,
	0x07, 0x9d, 0x4b, 0xbe, 0x8b, 0xe3, 0xad, 0xbc, 0xdb, 0x18, 0xa8, 0xbe,
	0x5a, 0xa8, 0x9d, 0xbe, 0xf5, 0x2c, 0x61, 0xbd, 0x99, 0x13, 0xd5, 0xbe,
	0x02, 0x28, 0x75, 0xbd, 0x0f, 0x89, 0x89, 0x3e, 0x8d, 0x77, 0x2a, 0xbf,
	0xf5, 0x45, 0xea, 0x3d, 0x5b, 0x6a, 0x85, 0xbd, 0xce, 0xda, 0x2a, 0x3f,
	0x84, 0x58, 0x84, 0x3e, 0x60, 0xd1, 0x9d, 0x3e, 0x80, 0x15, 0xff, 0xbd,
	0x4c, 0xbb, 0x16, 0x3f, 0x4f, 0x4e, 0x6c, 0xbe, 0x98, 0x6f, 0xa7, 0x3e,
	0x9f, 0x2c, 0x4e, 0xbf, 0x3f, 0xc6, 0x4b, 0xbf, 0xab, 0xca, 0x84, 0x3d,
	0xa7, 0xee, 0x0d, 0x3f, 0x25, 0xa7, 0x1e, 0xbe, 0x0d, 0xae, 0x6d, 0xbe,
	0xf6, 0xb0, 0xad, 0x3d, 0x0e, 0xc4, 0x9c, 0xbe, 0x4b, 0x61, 0x52, 0x3e,
	0xf5, 0x82, 0x45, 0xbe, 0xad, 0xe3, 0x39, 0xbf, 0x21, 0xef, 0x08, 0x3e,
	0xdd, 0x73, 0x3e, 0x3e, 0xd7, 0x8e, 0x3a, 0xbc, 0xf8, 0x52, 0xa2, 0xbd,
	0x77, 0x6b, 0xda, 0xbc, 0x87, 0xdb, 0xad, 0x3d, 0xd7, 0x5f, 0x7c, 0x3e,
	0x80, 0x6d, 0x57, 0xbe, 0xf9, 0xbc, 0x26, 0xbe, 0x68, 0xce, 0xab, 0x3d,
	0x80, 0x47, 0xdb, 0x3e, 0x25, 0xe6, 0x07, 0xbc, 0xe9, 0x60, 0x87, 0xbd,
	0xb1, 0xa6, 0xb0, 0x3c, 0x1a, 0x49, 0x21, 0x3e, 0xba, 0xfc, 0x53, 0xbe,
	0x02, 0x06, 0x31, 0xbd, 0xb4, 0xcc, 0x55, 0x3e, 0x4e, 0xa6, 0x8b, 0x3e,
	0x8f, 0x4b, 0x1f, 0xbf, 0x09, 0x50, 0x25, 0xbe, 0x9b, 0x41, 0x9d, 0x3e,
	0x05, 0xb4, 0x7d, 0x3c, 0x07, 0x87, 0x03, 0x3f, 0xe8, 0xdf, 0x0d, 0xbf,
	0xa9, 0xd9, 0x72, 0x3e, 0x17, 0x36, 0xfb, 0xbd, 0xc8, 0x21, 0x3f, 0xbf,
	0xd8, 0xe9, 0xcd, 0x3d, 0x43, 0x7e, 0x4e, 0xbe, 0xdb, 0xd0, 0x09, 0x3e,
	0x9d, 0xf2, 0x03, 0xbf, 0xd2, 0x7d, 0xa0, 0x3e, 0x3b, 0xf4, 0xaf, 0xbe,
	0x54, 0x38, 0xc5, 0xbe, 0x5e, 0x8f, 0x02, 0xbe, 0x90, 0xf0, 0x4c, 0xbd,
	0x93, 0xe3, 0x8b, 0xbf, 0xb9, 0xfe, 0x06, 0xbe, 0x93, 0xd2, 0x97, 0xbd,
	0xed, 0x97, 0xd2, 0xbe, 0xcb, 0x60, 0xd1, 0xbc, 0xd5, 0x69, 0x14, 0xbf,
	0xf1, 0xac, 0x2e, 0xbf, 0x07, 0xd6, 0xd4, 0xbd, 0xf2, 0x20, 0x35, 0x3b,
	0x75, 0xac, 0xbf, 0x3e, 0xf0, 0x86, 0x3c, 0x3e, 0xde, 0xb7, 0xfb, 0x3e,
	0x26, 0x36, 0xe7, 0xbe, 0x7f, 0xa6, 0x2d, 0xbe, 0x17, 0x4f, 0x35, 0x3e,
	0xae, 0x0e, 0x60, 0x3e, 0x4c, 0x45, 0x05, 0x3c, 0x76, 0xfc, 0xe5, 0xbe,
	0x85, 0xd6, 0x12, 0x3e, 0x1b, 0x6e, 0xbb, 0x3f, 0x4d, 0x35, 0xa8, 0xbe,
	0x63, 0xd5, 0x30, 0xbf, 0x86, 0x93, 0x41, 0x3e, 0x24, 0x02, 0xa4, 0x3e,
	0x1b, 0xc6, 0x05, 0x3e, 0x0f, 0xfd, 0xff, 0x3e, 0xe2, 0xd6, 0x07, 0x3d,
	0x28, 0xa1, 0xa0, 0x3e, 0x74, 0x47, 0x56, 0xbf, 0xa3, 0xac, 0xb2, 0x3d,
	0x8d, 0xb2, 0xf8, 0x3c, 0x9d, 0xee, 0xd6, 0x3d, 0xec, 0x67, 0xe9, 0x3e,
	0x3d, 0x24, 0xd5, 0xbe, 0x8f, 0x41, 0x42, 0xbe, 0xf8, 0x3b, 0x29, 0x3e,
	0x3d, 0x24, 0xb0, 0x3e, 0x0c, 0x78, 0xa8, 0x3e, 0x33, 0xf2, 0xad, 0xbe,
	0xd9, 0x61, 0x4f, 0x3e, 0x1c, 0x44, 0x8b, 0x3e, 0xf6, 0xb1, 0xd2, 0x3d,
	0xb0, 0x60, 0x19, 0x3e, 0x2d, 0xb3, 0xb8, 0x3d, 0x2e, 0x88, 0x5e, 0xbe,
	0x68, 0xad, 0x88, 0xbc, 0x23, 0x5b, 0x6b, 0x3e, 0xfc, 0xa0, 0xb5, 0x3e,
	0x1f, 0x2a, 0x9c, 0xbc, 0x9c, 0x43, 0x70, 0x3d, 0x63, 0x18, 0xc4, 0x3d,
	0x20, 0x7a, 0x81, 0x3e, 0x01, 0xdc, 0x75, 0xbe, 0x49, 0x1a, 0xbe, 0x3e,
	0xa8, 0xb4, 0x0c, 0x3f, 0xd6, 0x28, 0xcd, 0x3d, 0x1c, 0x9e, 0xfb, 0x3d,
	0x22, 0x03, 0x99, 0x3e, 0xaa, 0x2b, 0xdc, 0x3d, 0xfa, 0xcb, 0x9b, 0x3e,
	0xfb, 0xa2, 0x4f, 0x3e, 0x63, 0x26, 0xda, 0x3e, 0xe3, 0x36, 0xc7, 0x3e,
	0x69, 0x2e, 0xe3, 0x3e, 0xb7, 0xe4, 0x60, 0x3e, 0xa5, 0x42, 0x4d, 0x3e,
	0x28, 0xd1, 0xf6, 0xbe, 0x69, 0x2f, 0x2d, 0x3d, 0xdf, 0x66, 0x9a, 0xbe,
	0x22, 0xb9, 0x42, 0x3e, 0x93, 0x28, 0xbd, 0x3e, 0x3f, 0x7a, 0xae, 0x3e,
	0x28, 0x80, 0x2d, 0x3e, 0xd9, 0xc0, 0x42, 0x3c, 0xaf, 0x39, 0x8d, 0x3e,
	0x83, 0xab, 0x41, 0x3e, 0xd1, 0x31, 0x21, 0xbe, 0x0f, 0xe7, 0x66, 0xbe,
	0x19, 0xf5, 0xfc, 0x3d, 0xa5, 0xcf, 0xa8, 0x3e, 0xbf, 0x65, 0x11, 0xbd,
	0x19, 0x5f, 0x14, 0xbd, 0xaf, 0x4e, 0x8d, 0x3e, 0x3f, 0x6e, 0x02, 0xbe,
	0x2f, 0x86, 0xba, 0x3d, 0x3a, 0x28, 0x18, 0x3e, 0xd7, 0xd7, 0x74, 0x3d,
	0xd7, 0xd9, 0xde, 0xbd, 0xda, 0xd4, 0x9a, 0xbe, 0x4c, 0x8d, 0xdf, 0xbd,
	0x86, 0xb1, 0x30, 0xbe, 0x02, 0x24, 0x00, 0xbd, 0x9e, 0xd7, 0x12, 0x3e,
	0x8a, 0x74, 0x7b, 0x3e, 0x80, 0xdd, 0x0a, 0xbf, 0x70, 0x57, 0x36, 0x3e,
	0x1d, 0x61, 0xc5, 0x3e, 0x54, 0xa4, 0xb9, 0x3e, 0x6d, 0xd6, 0xb6, 0x3e,
	0x62, 0x5d, 0xbd, 0xbc, 0x75, 0x91, 0x9d, 0x3e, 0xc2, 0x84, 0x51, 0xbf,
	0x4e, 0xf4, 0xeb, 0xbe, 0x71, 0xc2, 0x08, 0xbf, 0xc5, 0x16, 0xb7, 0xbe,
	0xe7, 0xa2, 0x1b, 0x3e, 0xc7, 0x70, 0xcb, 0x3c, 0xab, 0xf7, 0x70, 0xbf,
	0xda, 0xcf, 0x03, 0xbf, 0x8b, 0x9a, 0x6a, 0xbd, 0x5e, 0xcd, 0x9d, 0xbe,
	0x0a, 0xac, 0xad, 0xbf, 0xc8, 0x5a, 0x69, 0x3e, 0x48, 0xfd, 0x40, 0x3f,
	0xb1, 0xc0, 0x37, 0xbe, 0xcc, 0x71, 0x8c, 0xbe, 0xdf, 0xc8, 0x09, 0xbf,
	0xe7, 0x39, 0xc9, 0x3e, 0x09, 0x26, 0x78, 0xbe, 0xe0, 0x43, 0xb5, 0xbd,
	0x13, 0x3c, 0xd0, 0xbc, 0x0d, 0xba, 0x93, 0x3e, 0x88, 0x7b, 0x95, 0x3d,
	0x45, 0x84, 0x3e, 0xbe, 0x69, 0x44, 0xde, 0x3b, 0xfb, 0xfa, 0xae, 0xbe,
	0xe6, 0x1e, 0x0c, 0xbf, 0xbf, 0x99, 0x50, 0x3e, 0xf4, 0x58, 0xe9, 0xbe,
	0x98, 0xb4, 0xbc, 0xbd, 0x4e, 0x63, 0xa4, 0x3d, 0x09, 0xe0, 0x89, 0xbd,
	0xf4, 0xb3, 0x02, 0xc0, 0x18, 0x93, 0x55, 0xbf, 0x0d, 0x98, 0x2b, 0xbf,
	0x76, 0x71, 0x51, 0x3e, 0xa1, 0xd4, 0x83, 0xbf, 0x4b, 0xe3, 0xf6, 0xbc,
	0xe3, 0x3c, 0x73, 0x3d, 0x53, 0x30, 0x4b, 0xbe, 0xfe, 0x34, 0xc9, 0xbe,
	0xd9, 0xf6, 0x08, 0xbe, 0x25, 0x55, 0x4d, 0x3e, 0xfc, 0xcb, 0x3b, 0xbe,
	0x10, 0xf2, 0x98, 0xbe, 0xeb, 0x8f, 0xe4, 0xbe, 0x6b, 0x96, 0x7c, 0xbe,
	0x58, 0xb4, 0xc8, 0xbe, 0x10, 0x3c, 0x2d, 0x3e, 0x23, 0xd2, 0xfa, 0x3d,
	0x1f, 0xa3, 0xbc, 0x3d, 0x31, 0x44, 0x45, 0x3f, 0xe6, 0x3a, 0x38, 0xbd,
	0xa3, 0x36, 0x28, 0x3e, 0x4e, 0xff, 0xb4, 0x3e, 0x50, 0xee, 0x11, 0xbf,
	0xb0, 0x74, 0xd8, 0xbe, 0x91, 0x39, 0x9e, 0xbf, 0x24, 0x76, 0x24, 0xbf,
	0x72, 0xdf, 0x5a, 0xbe, 0x75, 0xc2, 0x51, 0x3d, 0x74, 0x29, 0xaa, 0x3d,
	0xb5, 0x8e, 0x0e, 0x3f, 0x57, 0x00, 0x04, 0xbe, 0xcf, 0xa6, 0xa8, 0xbd,
	0xf2, 0xfd, 0xff, 0xff, 0x04, 0x00, 0x00, 0x00, 0x00, 0x02, 0x00, 0x00,
	0xc4, 0x70, 0x01, 0x3b, 0x4c, 0x61, 0xde, 0xbe, 0xc2, 0x0f, 0x2e, 0xbe,
	0x7a, 0x13, 0x7d, 0x3e, 0x6b, 0xe2, 0xb5, 0xbb, 0x53, 0xae, 0x69, 0x3e,
	0x91, 0x9d, 0xf1, 0x3d, 0xa5, 0x63, 0x7b, 0x3d, 0x09, 0xc3, 0x87, 0x3d,
	0x3d, 0x2d, 0x0c, 0x3e, 0xfe, 0x7d, 0x07, 0xbe, 0x0b, 0x48, 0xff, 0xbc,
	0x3d, 0x61, 0x1d, 0xbd, 0x3a, 0xc9, 0x1a, 0x3d, 0x2b, 0x11, 0xab, 0xbe,
	0x9e, 0xea, 0xcd, 0x3d, 0x29, 0x8b, 0x02, 0x3e, 0x9e, 0x06, 0x78, 0x3d,
	0x0b, 0x26, 0xe2, 0x3d, 0xec, 0xee, 0x32, 0xbc, 0x4a, 0x80, 0x27, 0xbe,
	0xbe, 0xad, 0x35, 0xbe, 0x1f, 0x2a, 0x3b, 0x3e, 0x72, 0x29, 0xa3, 0xbc,
	0x1b, 0x22, 0xbb, 0xbd, 0xc0, 0x02, 0xd3, 0xbc, 0x2c, 0x00, 0xac, 0x3d,
	0x5a, 0x12, 0xf1, 0x3d, 0x5f, 0x21, 0x84, 0xbd, 0x1f, 0x6c, 0x0b, 0xbe,
	0xac, 0x2c, 0x5b, 0x3d, 0x24, 0x04, 0x0e, 0xbe, 0x88, 0x74, 0x31, 0xbe,
	0x66, 0x17, 0xbd, 0xbd, 0x94, 0x41, 0xd3, 0x3d, 0x84, 0x0a, 0x04, 0xbe,
	0xc6, 0x6d, 0x91, 0xbc, 0x85, 0x3d, 0xfc, 0x3e, 0xe8, 0xa3, 0xd8, 0xbd,
	0x69, 0x44, 0x6b, 0xbd, 0xcf, 0x14, 0x0e, 0xbe, 0xa4, 0x63, 0x14, 0xbe,
	0xbc, 0xa5, 0x38, 0xbd, 0x4b, 0x40, 0xb4, 0x3c, 0x88, 0xc0, 0x08, 0x3d,
	0x50, 0x6e, 0x5b, 0xbb, 0x7e, 0x5a, 0x94, 0xbd, 0x22, 0x37, 0x03, 0x3d,
	0xb7, 0x65, 0xac, 0xbe, 0x10, 0xba, 0x73, 0x3e, 0xb7, 0xc0, 0xfd, 0x3d,
	0x90, 0xb9, 0xe0, 0x3c, 0x87, 0x5f, 0xae, 0xbd, 0x4a, 0x9a, 0xbf, 0x3e,
	0xca, 0x93, 0xf8, 0xbb, 0x1f, 0x3c, 0x24, 0xbe, 0xc8, 0xb7, 0x37, 0xbe,
	0x0f, 0xb6, 0x4b, 0x3e, 0x76, 0xdd, 0x5c, 0x3e, 0xd0, 0xbb, 0x48, 0x3d,
	0x87, 0xf6, 0x50, 0x3e, 0x5f, 0x28, 0x1e, 0xbe, 0x6c, 0xf6, 0x92, 0x3d,
	0x10, 0xea, 0x1c, 0xbe, 0xea, 0x05, 0x28, 0x3e, 0x80, 0x79, 0x1b, 0xbe,
	0xd8, 0x97, 0xa0, 0x3d, 0x05, 0x87, 0xde, 0xbd, 0xab, 0xdf, 0x89, 0xbd,
	0xd4, 0x43, 0x22, 0xbe, 0xa1, 0xed, 0x63, 0xbd, 0x68, 0x93, 0x18, 0xbd,
	0x50, 0x5c, 0xf9, 0xbd, 0x51, 0x7d, 0x08, 0xbe, 0x04, 0x32, 0x0f, 0xbe,
	0x64, 0x7e, 0x42, 0x3e, 0x8e, 0xbe, 0x11, 0xbe, 0x87, 0xc0, 0x0d, 0x3c,
	0x9b, 0x13, 0x8c, 0x3c, 0x31, 0xc4, 0x07, 0xbe, 0xdf, 0xdf, 0x88, 0x3e,
	0x80, 0xcf, 0x18, 0x3e, 0x17, 0xbd, 0x13, 0x3d, 0x11, 0xcd, 0x3f, 0x3d,
	0x03, 0x09, 0x8c, 0x3c, 0xa9, 0xc3, 0x26, 0xbe, 0x97, 0xdb, 0x93, 0xbe,
	0xed, 0x9e, 0xb3, 0x3c, 0x4c, 0xe1, 0xf7, 0xbd, 0xcf, 0xed, 0x2e, 0x3d,
	0xb0, 0x4e, 0x5b, 0xbc, 0xe7, 0x3c, 0x0d, 0x3e, 0x85, 0x15, 0xd7, 0x3c,
	0xd2, 0x99, 0x25, 0x3e, 0x27, 0xc7, 0xfb, 0xbc, 0xe1, 0x27, 0xae, 0xbd,
	0xf7, 0xc9, 0xa3, 0xbe, 0x8a, 0xd0, 0x52, 0xbe, 0x98, 0xbf, 0x1d, 0x3e,
	0x83, 0x0b, 0x4c, 0xbd, 0xd2, 0x0e, 0x10, 0x3d, 0x9d, 0x1b, 0x72, 0x3e,
	0xd2, 0xd7, 0x4d, 0xbd, 0xf8, 0xfe, 0x4f, 0x3d, 0x1d, 0xb8, 0x01, 0x3e,
	0x13, 0xa2, 0x2d, 0x3e, 0xbe, 0x4e, 0x02, 0xbe, 0x29, 0xd8, 0x16, 0x3d,
	0xbf, 0x95, 0x44, 0xbd, 0x4c, 0x0d, 0xf9, 0xbd, 0xbc, 0xaf, 0x42, 0x3e,
	0x95, 0x27, 0x42, 0x3c, 0x1f, 0x29, 0x88, 0xbe, 0x6b, 0x55, 0x0e, 0x3e,
	0x48, 0xf7, 0x3b, 0x3d, 0xa9, 0x4d, 0xba, 0x3c, 0x66, 0xa0, 0x96, 0xbc,
	0x35, 0xf2, 0x7c, 0x3d, 0xd9, 0xf5, 0x4c, 0x3d, 0x50, 0xd6, 0xc4, 0xbe,
	0x1c, 0x8c, 0x39, 0x3e, 0xcb, 0xdb, 0x10, 0xbd, 0x38, 0xdf, 0x6c, 0xbe,
	0x7b, 0xbe, 0x0d, 0x3e, 0xcc, 0x61, 0x4a, 0xbd, 0x3f, 0x30, 0x57, 0xbb,
	0x74, 0xb9, 0xa9, 0xbd, 0x71, 0xa6, 0x11, 0x3e, 0x00, 0x00, 0x06, 0x00,
	0x08, 0x00, 0x04, 0x00, 0x06, 0x00, 0x00, 0x00, 0x04, 0x00, 0x00, 0x00,
	0x10, 0x00, 0x00, 0x00, 0xb4, 0x91, 0x99, 0x3e, 0x20, 0x7a, 0x40, 0x3e,
	0x66, 0xa1, 0x14, 0x3e, 0x00, 0x71, 0x2b, 0x3e, 0x10, 0xfa, 0xff, 0xff,
	0x14, 0xfa, 0xff, 0xff, 0x0f, 0x00, 0x00, 0x00, 0x4d, 0x4c, 0x49, 0x52,
	0x20, 0x43, 0x6f, 0x6e, 0x76, 0x65, 0x72, 0x74, 0x65, 0x64, 0x2e, 0x00,
	0x01, 0x00, 0x00, 0x00, 0x14, 0x00, 0x00, 0x00, 0x00, 0x00, 0x0e, 0x00,
	0x18, 0x00, 0x14, 0x00, 0x10, 0x00, 0x0c, 0x00, 0x08, 0x00, 0x04, 0x00,
	0x0e, 0x00, 0x00, 0x00, 0x14, 0x00, 0x00, 0x00, 0x1c, 0x00, 0x00, 0x00,
	0x68, 0x01, 0x00, 0x00, 0x6c, 0x01, 0x00, 0x00, 0x70, 0x01, 0x00, 0x00,
	0x04, 0x00, 0x00, 0x00, 0x6d, 0x61, 0x69, 0x6e, 0x00, 0x00, 0x00, 0x00,
	0x05, 0x00, 0x00, 0x00, 0x0c, 0x01, 0x00, 0x00, 0xbc, 0x00, 0x00, 0x00,
	0x74, 0x00, 0x00, 0x00, 0x3c, 0x00, 0x00, 0x00, 0x04, 0x00, 0x00, 0x00,
	0x16, 0xff, 0xff, 0xff, 0x10, 0x00, 0x00, 0x00, 0x00, 0x00, 0x00, 0x08,
	0x10, 0x00, 0x00, 0x00, 0x14, 0x00, 0x00, 0x00, 0x06, 0xff, 0xff, 0xff,
	0x00, 0x00, 0x00, 0x01, 0x01, 0x00, 0x00, 0x00, 0x0b, 0x00, 0x00, 0x00,
	0x03, 0x00, 0x00, 0x00, 0x0a, 0x00, 0x00, 0x00, 0x02, 0x00, 0x00, 0x00,
	0x01, 0x00, 0x00, 0x00, 0x96, 0xff, 0xff, 0xff, 0x14, 0x00, 0x00, 0x00,
	0x00, 0x00, 0x00, 0x0b, 0x14, 0x00, 0x00, 0x00, 0x18, 0x00, 0x00, 0x00,
	0x01, 0x00, 0x00, 0x00, 0x86, 0xff, 0xff, 0xff, 0x00, 0x00, 0x00, 0x01,
	0x01, 0x00, 0x00, 0x00, 0x0a, 0x00, 0x00, 0x00, 0x02, 0x00, 0x00, 0x00,
	0x09, 0x00, 0x00, 0x00, 0x04, 0x00, 0x00, 0x00, 0x7e, 0xff, 0xff, 0xff,
	0x10, 0x00, 0x00, 0x00, 0x00, 0x00, 0x00, 0x08, 0x10, 0x00, 0x00, 0x00,
	0x14, 0x00, 0x00, 0x00, 0x6e, 0xff, 0xff, 0xff, 0x00, 0x00, 0x00, 0x01,
	0x01, 0x00, 0x00, 0x00, 0x09, 0x00, 0x00, 0x00, 0x03, 0x00, 0x00, 0x00,
	0x08, 0x00, 0x00, 0x00, 0x03, 0x00, 0x00, 0x00, 0xff, 0xff, 0xff, 0xff,
	0x00, 0x00, 0x0e, 0x00, 0x1a, 0x00, 0x14, 0x00, 0x10, 0x00, 0x0c, 0x00,
	0x0b, 0x00, 0x04, 0x00, 0x0e, 0x00, 0x00, 0x00, 0x1c, 0x00, 0x00, 0x00,
	0x00, 0x00, 0x00, 0x0b, 0x1c, 0x00, 0x00, 0x00, 0x20, 0x00, 0x00, 0x00,
	0x01, 0x00, 0x00, 0x00, 0x00, 0x00, 0x06, 0x00, 0x08, 0x00, 0x07, 0x00,
	0x06, 0x00, 0x00, 0x00, 0x00, 0x00, 0x00, 0x01, 0x01, 0x00, 0x00, 0x00,
	0x08, 0x00, 0x00, 0x00, 0x02, 0x00, 0x00, 0x00, 0x07, 0x00, 0x00, 0x00,
	0x05, 0x00, 0x00, 0x00, 0x00, 0x00, 0x0e, 0x00, 0x16, 0x00, 0x00, 0x00,
	0x10, 0x00, 0x0c, 0x00, 0x0b, 0x00, 0x04, 0x00, 0x0e, 0x00, 0x00, 0x00,
	0x1c, 0x00, 0x00, 0x00, 0x00, 0x00, 0x00, 0x08, 0x1c, 0x00, 0x00, 0x00,
	0x20, 0x00, 0x00, 0x00, 0x00, 0x00, 0x0a, 0x00, 0x08, 0x00, 0x00, 0x00,
	0x00, 0x00, 0x07, 0x00, 0x0a, 0x00, 0x00, 0x00, 0x00, 0x00, 0x00, 0x01,
	0x01, 0x00, 0x00, 0x00, 0x07, 0x00, 0x00, 0x00, 0x03, 0x00, 0x00, 0x00,
	0x00, 0x00, 0x00, 0x00, 0x06, 0x00, 0x00, 0x00, 0xff, 0xff, 0xff, 0xff,
	0x01, 0x00, 0x00, 0x00, 0x0b, 0x00, 0x00, 0x00, 0x01, 0x00, 0x00, 0x00,
	0x00, 0x00, 0x00, 0x00, 0x0c, 0x00, 0x00, 0x00, 0xe0, 0x03, 0x00, 0x00,
	0x8c, 0x03, 0x00, 0x00, 0x4c, 0x03, 0x00, 0x00, 0x0c, 0x03, 0x00, 0x00,
	0xcc, 0x02, 0x00, 0x00, 0x8c, 0x02, 0x00, 0x00, 0x24, 0x02, 0x00, 0x00,
	0xb8, 0x01, 0x00, 0x00, 0x38, 0x01, 0x00, 0x00, 0xd0, 0x00, 0x00, 0x00,
	0x50, 0x00, 0x00, 0x00, 0x04, 0x00, 0x00, 0x00, 0x66, 0xfc, 0xff, 0xff,
	0x00, 0x00, 0x00, 0x01, 0x10, 0x00, 0x00, 0x00, 0x10, 0x00, 0x00, 0x00,
	0x0c, 0x00, 0x00, 0x00, 0x28, 0x00, 0x00, 0x00, 0x14, 0xfc, 0xff, 0xff,
	0x19, 0x00, 0x00, 0x00, 0x53, 0x74, 0x61, 0x74, 0x65, 0x66, 0x75, 0x6c,
	0x50, 0x61, 0x72, 0x74, 0x69, 0x74, 0x69, 0x6f, 0x6e, 0x65, 0x64, 0x43,
	0x61, 0x6c, 0x6c, 0x3a, 0x30, 0x00, 0x00, 0x00, 0x02, 0x00, 0x00, 0x00,
	0x01, 0x00, 0x00, 0x00, 0x04, 0x00, 0x00, 0x00, 0xae, 0xfc, 0xff, 0xff,
	0x00, 0x00, 0x00, 0x01, 0x10, 0x00, 0x00, 0x00, 0x10, 0x00, 0x00, 0x00,
	0x0b, 0x00, 0x00, 0x00, 0x5c, 0x00, 0x00, 0x00, 0x5c, 0xfc, 0xff, 0xff,
	0x4c, 0x00, 0x00, 0x00, 0x5f, 0x5f, 0x6d, 0x61, 0x69, 0x6e, 0x5f, 0x5f,
	0x2e, 0x65, 0x32, 0x65, 0x4e, 0x65, 0x74, 0x77, 0x6f, 0x72, 0x6b, 0x3b,
	0x3b, 0x5f, 0x5f, 0x6d, 0x61, 0x69, 0x6e, 0x5f, 0x5f, 0x2e, 0x65, 0x32,
	0x65, 0x4e, 0x65, 0x74, 0x77, 0x6f, 0x72, 0x6b, 0x2f, 0x74, 0x6f, 0x72,
	0x63, 0x68, 0x2e, 0x6e, 0x6e, 0x2e, 0x6d, 0x6f, 0x64, 0x75, 0x6c, 0x65,
	0x73, 0x2e, 0x6c, 0x69, 0x6e, 0x65, 0x61, 0x72, 0x2e, 0x4c, 0x69, 0x6e,
	0x65, 0x61, 0x72, 0x5f, 0x66, 0x63, 0x32, 0x3b, 0x00, 0x00, 0x00, 0x00,
	0x02, 0x00, 0x00, 0x00, 0x01, 0x00, 0x00, 0x00, 0x20, 0x00, 0x00, 0x00,
	0x2a, 0xfd, 0xff, 0xff, 0x00, 0x00, 0x00, 0x01, 0x10, 0x00, 0x00, 0x00,
	0x10, 0x00, 0x00, 0x00, 0x0a, 0x00, 0x00, 0x00, 0x44, 0x00, 0x00, 0x00,
	0xd8, 0xfc, 0xff, 0xff, 0x37, 0x00, 0x00, 0x00, 0x5f, 0x5f, 0x6d, 0x61,
	0x69, 0x6e, 0x5f, 0x5f, 0x2e, 0x65, 0x32, 0x65, 0x4e, 0x65, 0x74, 0x77,
	0x6f, 0x72, 0x6b, 0x2f, 0x74, 0x6f, 0x72, 0x63, 0x68, 0x2e, 0x6e, 0x6e,
	0x2e, 0x6d, 0x6f, 0x64, 0x75, 0x6c, 0x65, 0x73, 0x2e, 0x6c, 0x69, 0x6e,
	0x65, 0x61, 0x72, 0x2e, 0x4c, 0x69, 0x6e, 0x65, 0x61, 0x72, 0x5f, 0x66,
	0x63, 0x32, 0x3b, 0x00, 0x02, 0x00, 0x00, 0x00, 0x01, 0x00, 0x00, 0x00,
	0x20, 0x00, 0x00, 0x00, 0x8e, 0xfd, 0xff, 0xff, 0x00, 0x00, 0x00, 0x01,
	0x10, 0x00, 0x00, 0x00, 0x10, 0x00, 0x00, 0x00, 0x09, 0x00, 0x00, 0x00,
	0x5c, 0x00, 0x00, 0x00, 0x3c, 0xfd, 0xff, 0xff, 0x4c, 0x00, 0x00, 0x00,
	0x5f, 0x5f, 0x6d, 0x61, 0x69, 0x6e, 0x5f, 0x5f, 0x2e, 0x65, 0x32, 0x65,
	0x4e, 0x65, 0x74, 0x77, 0x6f, 0x72, 0x6b, 0x3b, 0x3b, 0x5f, 0x5f, 0x6d,
	0x61, 0x69, 0x6e, 0x5f, 0x5f, 0x2e, 0x65, 0x32, 0x65, 0x4e, 0x65, 0x74,
	0x77, 0x6f, 0x72, 0x6b, 0x2f, 0x74, 0x6f, 0x72, 0x63, 0x68, 0x2e, 0x6e,
	0x6e, 0x2e, 0x6d, 0x6f, 0x64, 0x75, 0x6c, 0x65, 0x73, 0x2e, 0x6c, 0x69,
	0x6e, 0x65, 0x61, 0x72, 0x2e, 0x4c, 0x69, 0x6e, 0x65, 0x61, 0x72, 0x5f,
	0x66, 0x63, 0x31, 0x3b, 0x00, 0x00, 0x00, 0x00, 0x02, 0x00, 0x00, 0x00,
	0x01, 0x00, 0x00, 0x00, 0x40, 0x00, 0x00, 0x00, 0x0a, 0xfe, 0xff, 0xff,
	0x00, 0x00, 0x00, 0x01, 0x10, 0x00, 0x00, 0x00, 0x10, 0x00, 0x00, 0x00,
	0x08, 0x00, 0x00, 0x00, 0x48, 0x00, 0x00, 0x00, 0xb8, 0xfd, 0xff, 0xff,
	0x38, 0x00, 0x00, 0x00, 0x5f, 0x5f, 0x6d, 0x61, 0x69, 0x6e, 0x5f, 0x5f,
	0x2e, 0x65, 0x32, 0x65, 0x4e, 0x65, 0x74, 0x77, 0x6f, 0x72, 0x6b, 0x2f,
	0x74, 0x6f, 0x72, 0x63, 0x68, 0x2e, 0x6e, 0x6e, 0x2e, 0x6d, 0x6f, 0x64,
	0x75, 0x6c, 0x65, 0x73, 0x2e, 0x6c, 0x69, 0x6e, 0x65, 0x61, 0x72, 0x2e,
	0x4c, 0x69, 0x6e, 0x65, 0x61, 0x72, 0x5f, 0x66, 0x63, 0x31, 0x3b, 0x31,
	0x00, 0x00, 0x00, 0x00, 0x02, 0x00, 0x00, 0x00, 0x01, 0x00, 0x00, 0x00,
	0x40, 0x00, 0x00, 0x00, 0x72, 0xfe, 0xff, 0xff, 0x00, 0x00, 0x00, 0x01,
	0x10, 0x00, 0x00, 0x00, 0x10, 0x00, 0x00, 0x00, 0x07, 0x00, 0x00, 0x00,
	0x44, 0x00, 0x00, 0x00, 0x20, 0xfe, 0xff, 0xff, 0x37, 0x00, 0x00, 0x00,
	0x5f, 0x5f, 0x6d, 0x61, 0x69, 0x6e, 0x5f, 0x5f, 0x2e, 0x65, 0x32, 0x65,
	0x4e, 0x65, 0x74, 0x77, 0x6f, 0x72, 0x6b, 0x2f, 0x74, 0x6f, 0x72, 0x63,
	0x68, 0x2e, 0x6e, 0x6e, 0x2e, 0x6d, 0x6f, 0x64, 0x75, 0x6c, 0x65, 0x73,
	0x2e, 0x6c, 0x69, 0x6e, 0x65, 0x61, 0x72, 0x2e, 0x4c, 0x69, 0x6e, 0x65,
	0x61, 0x72, 0x5f, 0x66, 0x63, 0x31, 0x3b, 0x00, 0x02, 0x00, 0x00, 0x00,
	0x40, 0x00, 0x00, 0x00, 0x0f, 0x00, 0x00, 0x00, 0xd6, 0xfe, 0xff, 0xff,
	0x00, 0x00, 0x00, 0x01, 0x10, 0x00, 0x00, 0x00, 0x10, 0x00, 0x00, 0x00,
	0x06, 0x00, 0x00, 0x00, 0x1c, 0x00, 0x00, 0x00, 0x84, 0xfe, 0xff, 0xff,
	0x0f, 0x00, 0x00, 0x00, 0x61, 0x72, 0x69, 0x74, 0x68, 0x2e, 0x63, 0x6f,
	0x6e, 0x73, 0x74, 0x61, 0x6e, 0x74, 0x34, 0x00, 0x02, 0x00, 0x00, 0x00,
	0x01, 0x00, 0x00, 0x00, 0x40, 0x00, 0x00, 0x00, 0x12, 0xff, 0xff, 0xff,
	0x00, 0x00, 0x00, 0x01, 0x10, 0x00, 0x00, 0x00, 0x10, 0x00, 0x00, 0x00,
	0x05, 0x00, 0x00, 0x00, 0x1c, 0x00, 0x00, 0x00, 0xc0, 0xfe, 0xff, 0xff,
	0x0f, 0x00, 0x00, 0x00, 0x61, 0x72, 0x69, 0x74, 0x68, 0x2e, 0x63, 0x6f,
	0x6e, 0x73, 0x74, 0x61, 0x6e, 0x74, 0x33, 0x00, 0x02, 0x00, 0x00, 0x00,
	0x01, 0x00, 0x00, 0x00, 0x20, 0x00, 0x00, 0x00, 0x4e, 0xff, 0xff, 0xff,
	0x00, 0x00, 0x00, 0x01, 0x10, 0x00, 0x00, 0x00, 0x10, 0x00, 0x00, 0x00,
	0x04, 0x00, 0x00, 0x00, 0x1c, 0x00, 0x00, 0x00, 0xfc, 0xfe, 0xff, 0xff,
	0x0f, 0x00, 0x00, 0x00, 0x61, 0x72, 0x69, 0x74, 0x68, 0x2e, 0x63, 0x6f,
	0x6e, 0x73, 0x74, 0x61, 0x6e, 0x74, 0x32, 0x00, 0x02, 0x00, 0x00, 0x00,
	0x20, 0x00, 0x00, 0x00, 0x40, 0x00, 0x00, 0x00, 0x8a, 0xff, 0xff, 0xff,
	0x00, 0x00, 0x00, 0x01, 0x10, 0x00, 0x00, 0x00, 0x10, 0x00, 0x00, 0x00,
	0x03, 0x00, 0x00, 0x00, 0x1c, 0x00, 0x00, 0x00, 0x38, 0xff, 0xff, 0xff,
	0x0f, 0x00, 0x00, 0x00, 0x61, 0x72, 0x69, 0x74, 0x68, 0x2e, 0x63, 0x6f,
	0x6e, 0x73, 0x74, 0x61, 0x6e, 0x74, 0x31, 0x00, 0x02, 0x00, 0x00, 0x00,
	0x04, 0x00, 0x00, 0x00, 0x20, 0x00, 0x00, 0x00, 0xc6, 0xff, 0xff, 0xff,
	0x00, 0x00, 0x00, 0x01, 0x10, 0x00, 0x00, 0x00, 0x10, 0x00, 0x00, 0x00,
	0x02, 0x00, 0x00, 0x00, 0x1c, 0x00, 0x00, 0x00, 0x74, 0xff, 0xff, 0xff,
	0x0e, 0x00, 0x00, 0x00, 0x61, 0x72, 0x69, 0x74, 0x68, 0x2e, 0x63, 0x6f,
	0x6e, 0x73, 0x74, 0x61, 0x6e, 0x74, 0x00, 0x00, 0x01, 0x00, 0x00, 0x00,
	0x04, 0x00, 0x00, 0x00, 0x00, 0x00, 0x16, 0x00, 0x18, 0x00, 0x14, 0x00,
	0x00, 0x00, 0x10, 0x00, 0x0c, 0x00, 0x08, 0x00, 0x00, 0x00, 0x00, 0x00,
	0x00, 0x00, 0x07, 0x00, 0x16, 0x00, 0x00, 0x00, 0x00, 0x00, 0x00, 0x01,
	0x10, 0x00, 0x00, 0x00, 0x10, 0x00, 0x00, 0x00, 0x01, 0x00, 0x00, 0x00,
	0x28, 0x00, 0x00, 0x00, 0xc4, 0xff, 0xff, 0xff, 0x18, 0x00, 0x00, 0x00,
	0x73, 0x65, 0x72, 0x76, 0x69, 0x6e, 0x67, 0x5f, 0x64, 0x65, 0x66, 0x61,
	0x75, 0x6c, 0x74, 0x5f, 0x61, 0x72, 0x67, 0x73, 0x5f, 0x30, 0x3a, 0x30,
	0x00, 0x00, 0x00, 0x00, 0x02, 0x00, 0x00, 0x00, 0x01, 0x00, 0x00, 0x00,
	0x0f, 0x00, 0x00, 0x00, 0x02, 0x00, 0x00, 0x00, 0x1c, 0x00, 0x00, 0x00,
	0x08, 0x00, 0x00, 0x00, 0x04, 0x00, 0x04, 0x00, 0x04, 0x00, 0x00, 0x00,
	0x0c, 0x00, 0x10, 0x00, 0x0f, 0x00, 0x00, 0x00, 0x08, 0x00, 0x04, 0x00,
	0x0c, 0x00, 0x00, 0x00, 0x09, 0x00, 0x00, 0x00, 0x05, 0x00, 0x00, 0x00,
	0x00, 0x00, 0x00, 0x09
};
